{
  "0": "<unk>",
  "1": "<|nospeech|>",
  "2": "<pad>",
  "3": "<|endoftext|>",
  "4": "<|startoftranscript|>",
  "5": "<|pnc|>",
  "6": "<|nopnc|>",
  "7": "<|startofcontext|>",
  "8": "<|itn|>",
  "9": "<|noitn|>",
  "10": "<|timestamp|>",
  "11": "<|notimestamp|>",
  "12": "<|diarize|>",
  "13": "<|nodiarize|>",
  "14": "<|spkchange|>",
  "15": "<|audioseparator|>",
  "16": "<|emo:undefined|>",
  "17": "<|emo:neutral|>",
  "18": "<|emo:happy|>",
  "19": "<|emo:sad|>",
  "20": "<|emo:angry|>",
  "21": "<|unklang|>",
  "22": "<|predict_lang|>",
  "23": "<|nopredict_lang|>",
  "24": "<|aa|>",
  "25": "<|ab|>",
  "26": "<|af|>",
  "27": "<|ak|>",
  "28": "<|sq|>",
  "29": "<|am|>",
  "30": "<|ar|>",
  "31": "<|an|>",
  "32": "<|hy|>",
  "33": "<|as|>",
  "34": "<|av|>",
  "35": "<|ae|>",
  "36": "<|ay|>",
  "37": "<|az|>",
  "38": "<|bm|>",
  "39": "<|ba|>",
  "40": "<|eu|>",
  "41": "<|be|>",
  "42": "<|bn|>",
  "43": "<|bi|>",
  "44": "<|bs|>",
  "45": "<|br|>",
  "46": "<|bg|>",
  "47": "<|my|>",
  "48": "<|ca|>",
  "49": "<|ch|>",
  "50": "<|ce|>",
  "51": "<|ny|>",
  "52": "<|zh|>",
  "53": "<|cu|>",
  "54": "<|cv|>",
  "55": "<|kw|>",
  "56": "<|co|>",
  "57": "<|cr|>",
  "58": "<|hr|>",
  "59": "<|cs|>",
  "60": "<|da|>",
  "61": "<|dv|>",
  "62": "<|nl|>",
  "63": "<|dz|>",
  "64": "<|en|>",
  "65": "<|eo|>",
  "66": "<|et|>",
  "67": "<|ee|>",
  "68": "<|fo|>",
  "69": "<|fj|>",
  "70": "<|fi|>",
  "71": "<|fr|>",
  "72": "<|fy|>",
  "73": "<|ff|>",
  "74": "<|gd|>",
  "75": "<|gl|>",
  "76": "<|lg|>",
  "77": "<|ka|>",
  "78": "<|de|>",
  "79": "<|el|>",
  "80": "<|kl|>",
  "81": "<|gn|>",
  "82": "<|gu|>",
  "83": "<|ht|>",
  "84": "<|ha|>",
  "85": "<|he|>",
  "86": "<|hz|>",
  "87": "<|hi|>",
  "88": "<|ho|>",
  "89": "<|hu|>",
  "90": "<|is|>",
  "91": "<|io|>",
  "92": "<|ig|>",
  "93": "<|id|>",
  "94": "<|ia|>",
  "95": "<|ie|>",
  "96": "<|iu|>",
  "97": "<|ik|>",
  "98": "<|ga|>",
  "99": "<|it|>",
  "100": "<|ja|>",
  "101": "<|jv|>",
  "102": "<|kn|>",
  "103": "<|kr|>",
  "104": "<|ks|>",
  "105": "<|kk|>",
  "106": "<|km|>",
  "107": "<|ki|>",
  "108": "<|rw|>",
  "109": "<|ky|>",
  "110": "<|kv|>",
  "111": "<|kg|>",
  "112": "<|ko|>",
  "113": "<|kj|>",
  "114": "<|ku|>",
  "115": "<|lo|>",
  "116": "<|la|>",
  "117": "<|lv|>",
  "118": "<|li|>",
  "119": "<|ln|>",
  "120": "<|lt|>",
  "121": "<|lu|>",
  "122": "<|lb|>",
  "123": "<|mk|>",
  "124": "<|mg|>",
  "125": "<|ms|>",
  "126": "<|ml|>",
  "127": "<|mt|>",
  "128": "<|gv|>",
  "129": "<|mi|>",
  "130": "<|mr|>",
  "131": "<|mh|>",
  "132": "<|mn|>",
  "133": "<|na|>",
  "134": "<|nv|>",
  "135": "<|nd|>",
  "136": "<|nr|>",
  "137": "<|ng|>",
  "138": "<|ne|>",
  "139": "<|no|>",
  "140": "<|nb|>",
  "141": "<|nn|>",
  "142": "<|oc|>",
  "143": "<|oj|>",
  "144": "<|or|>",
  "145": "<|om|>",
  "146": "<|os|>",
  "147": "<|pi|>",
  "148": "<|ps|>",
  "149": "<|fa|>",
  "150": "<|pl|>",
  "151": "<|pt|>",
  "152": "<|pa|>",
  "153": "<|qu|>",
  "154": "<|ro|>",
  "155": "<|rm|>",
  "156": "<|rn|>",
  "157": "<|ru|>",
  "158": "<|se|>",
  "159": "<|sm|>",
  "160": "<|sg|>",
  "161": "<|sa|>",
  "162": "<|sc|>",
  "163": "<|sr|>",
  "164": "<|sn|>",
  "165": "<|sd|>",
  "166": "<|si|>",
  "167": "<|sk|>",
  "168": "<|sl|>",
  "169": "<|so|>",
  "170": "<|st|>",
  "171": "<|es|>",
  "172": "<|su|>",
  "173": "<|sw|>",
  "174": "<|ss|>",
  "175": "<|sv|>",
  "176": "<|tl|>",
  "177": "<|ty|>",
  "178": "<|tg|>",
  "179": "<|ta|>",
  "180": "<|tt|>",
  "181": "<|te|>",
  "182": "<|th|>",
  "183": "<|bo|>",
  "184": "<|ti|>",
  "185": "<|to|>",
  "186": "<|ts|>",
  "187": "<|tn|>",
  "188": "<|tr|>",
  "189": "<|tk|>",
  "190": "<|tw|>",
  "191": "<|ug|>",
  "192": "<|uk|>",
  "193": "<|ur|>",
  "194": "<|uz|>",
  "195": "<|ve|>",
  "196": "<|vi|>",
  "197": "<|vo|>",
  "198": "<|wa|>",
  "199": "<|cy|>",
  "200": "<|wo|>",
  "201": "<|xh|>",
  "202": "<|ii|>",
  "203": "<|yi|>",
  "204": "<|yo|>",
  "205": "<|za|>",
  "206": "<|zu|>",
  "207": "<|0|>",
  "208": "<|1|>",
  "209": "<|2|>",
  "210": "<|3|>",
  "211": "<|4|>",
  "212": "<|5|>",
  "213": "<|6|>",
  "214": "<|7|>",
  "215": "<|8|>",
  "216": "<|9|>",
  "217": "<|10|>",
  "218": "<|spk0|>",
  "219": "<|spk1|>",
  "220": "<|spk2|>",
  "221": "<|spk3|>",
  "222": "<|spk4|>",
  "223": "<|spk5|>",
  "224": "<|spk6|>",
  "225": "<|spk7|>",
  "226": "<|spk8|>",
  "227": "<|spk9|>",
  "228": "<|spk10|>",
  "229": "<|spk11|>",
  "230": "<|spk12|>",
  "231": "<|spk13|>",
  "232": "<|spk14|>",
  "233": "<|spk15|>",
  "234": "0",
  "235": "1",
  "236": "2",
  "237": "3",
  "238": "4",
  "239": "5",
  "240": "6",
  "241": "7",
  "242": "8",
  "243": "9",
  "244": "<|spltoken0|>",
  "245": "<|spltoken1|>",
  "246": "<|spltoken2|>",
  "247": "<|spltoken3|>",
  "248": "<|spltoken4|>",
  "249": "<|spltoken5|>",
  "250": "<|spltoken6|>",
  "251": "<|spltoken7|>",
  "252": "<|spltoken8|>",
  "253": "<|spltoken9|>",
  "254": "<|spltoken10|>",
  "255": "<|spltoken11|>",
  "256": "<|spltoken12|>",
  "257": "<|spltoken13|>",
  "258": "<|spltoken14|>",
  "259": "<|spltoken15|>",
  "260": "<|spltoken16|>",
  "261": "<|spltoken17|>",
  "262": "<|spltoken18|>",
  "263": "<|spltoken19|>",
  "264": "<|spltoken20|>",
  "265": "<|spltoken21|>",
  "266": "<|spltoken22|>",
  "267": "<|spltoken23|>",
  "268": "<|spltoken24|>",
  "269": "<|spltoken25|>",
  "270": "<|spltoken26|>",
  "271": "<|spltoken27|>",
  "272": "<|spltoken28|>",
  "273": "<|spltoken29|>",
  "274": "en",
  "275": " s",
  "276": " d",
  "277": "er",
  "278": " p",
  "279": " a",
  "280": " t",
  "281": "in",
  "282": " m",
  "283": "es",
  "284": "an",
  "285": " n",
  "286": " v",
  "287": "ar",
  "288": " k",
  "289": "on",
  "290": "is",
  "291": "et",
  "292": "el",
  "293": " l",
  "294": "or",
  "295": "al",
  "296": "at",
  "297": "as",
  "298": " c",
  "299": " o",
  "300": " j",
  "301": "it",
  "302": " b",
  "303": " h",
  "304": "ie",
  "305": "il",
  "306": "re",
  "307": " u",
  "308": "os",
  "309": " f",
  "310": "ch",
  "311": "em",
  "312": " i",
  "313": "om",
  "314": "ra",
  "315": "te",
  "316": "am",
  "317": " g",
  "318": " de",
  "319": "ad",
  "320": "ro",
  "321": "ti",
  "322": " z",
  "323": "us",
  "324": "ol",
  "325": " e",
  "326": "ed",
  "327": "ta",
  "328": " w",
  "329": " п",
  "330": "ri",
  "331": "un",
  "332": "li",
  "333": " н",
  "334": " in",
  "335": "id",
  "336": " с",
  "337": "le",
  "338": " в",
  "339": "ak",
  "340": "ent",
  "341": "qu",
  "342": "то",
  "343": " S",
  "344": "ur",
  "345": "ik",
  "346": " A",
  "347": " se",
  "348": "im",
  "349": "od",
  "350": "ci",
  "351": "ut",
  "352": " un",
  "353": "ov",
  "354": " je",
  "355": "ul",
  "356": " M",
  "357": " T",
  "358": " na",
  "359": "ot",
  "360": " D",
  "361": " д",
  "362": " E",
  "363": " qu",
  "364": " en",
  "365": "est",
  "366": " to",
  "367": "eg",
  "368": "st",
  "369": "ai",
  "370": "ag",
  "371": "ij",
  "372": "ра",
  "373": " P",
  "374": "та",
  "375": " r",
  "376": "ud",
  "377": "ek",
  "378": "ig",
  "379": " τ",
  "380": " I",
  "381": "ing",
  "382": " N",
  "383": "ни",
  "384": "av",
  "385": "um",
  "386": "ко",
  "387": "ia",
  "388": "he",
  "389": "те",
  "390": "но",
  "391": " на",
  "392": "ва",
  "393": " la",
  "394": "ро",
  "395": " з",
  "396": "og",
  "397": " о",
  "398": "ist",
  "399": "ir",
  "400": " м",
  "401": "de",
  "402": " и",
  "403": "la",
  "404": "ic",
  "405": " st",
  "406": " J",
  "407": " at",
  "408": " po",
  "409": " ne",
  "410": " pr",
  "411": " an",
  "412": "ли",
  "413": " al",
  "414": "aj",
  "415": "ти",
  "416": "iv",
  "417": " C",
  "418": "ре",
  "419": "je",
  "420": " по",
  "421": "ка",
  "422": "на",
  "423": " es",
  "424": "and",
  "425": " H",
  "426": " B",
  "427": " re",
  "428": "ου",
  "429": "ok",
  "430": " K",
  "431": " on",
  "432": "ne",
  "433": " pro",
  "434": "to",
  "435": " б",
  "436": "ab",
  "437": " π",
  "438": "ou",
  "439": " L",
  "440": "го",
  "441": "ter",
  "442": "ien",
  "443": " que",
  "444": " V",
  "445": " da",
  "446": "ja",
  "447": "na",
  "448": "ka",
  "449": "ри",
  "450": " par",
  "451": " su",
  "452": " O",
  "453": " et",
  "454": "ion",
  "455": " ja",
  "456": "να",
  "457": " α",
  "458": " do",
  "459": " y",
  "460": " el",
  "461": "ru",
  "462": " é",
  "463": "ce",
  "464": " κ",
  "465": " di",
  "466": " σ",
  "467": "se",
  "468": " er",
  "469": "ст",
  "470": "ma",
  "471": " con",
  "472": " ε",
  "473": "no",
  "474": "ap",
  "475": " si",
  "476": "ен",
  "477": "me",
  "478": " te",
  "479": "ni",
  "480": " ч",
  "481": " le",
  "482": " μ",
  "483": " ma",
  "484": "än",
  "485": " sp",
  "486": " за",
  "487": "ost",
  "488": "end",
  "489": "ko",
  "490": "are",
  "491": " com",
  "492": "ke",
  "493": " no",
  "494": "är",
  "495": "ла",
  "496": "ers",
  "497": " G",
  "498": " sa",
  "499": " W",
  "500": " ir",
  "501": "ere",
  "502": " vi",
  "503": " li",
  "504": " не",
  "505": " ž",
  "506": " the",
  "507": "ve",
  "508": " is",
  "509": " for",
  "510": "ob",
  "511": "ле",
  "512": "во",
  "513": "si",
  "514": "αι",
  "515": " F",
  "516": " il",
  "517": " U",
  "518": " R",
  "519": "ть",
  "520": "ali",
  "521": "ine",
  "522": "sa",
  "523": " ко",
  "524": " š",
  "525": " me",
  "526": "va",
  "527": "ant",
  "528": "vo",
  "529": "ει",
  "530": "ell",
  "531": " vo",
  "532": "ill",
  "533": " det",
  "534": "ast",
  "535": " ar",
  "536": " î",
  "537": "ze",
  "538": " ra",
  "539": "ho",
  "540": "ju",
  "541": "ör",
  "542": "ки",
  "543": "ль",
  "544": " ni",
  "545": "ви",
  "546": "ло",
  "547": " so",
  "548": "ver",
  "549": " pre",
  "550": " я",
  "551": " ta",
  "552": " th",
  "553": " е",
  "554": "tu",
  "555": " be",
  "556": "да",
  "557": "pp",
  "558": "ind",
  "559": "ge",
  "560": " du",
  "561": "ess",
  "562": "ks",
  "563": " od",
  "564": "ku",
  "565": "ся",
  "566": "ac",
  "567": "ele",
  "568": "ια",
  "569": "zy",
  "570": "ran",
  "571": "ten",
  "572": "io",
  "573": " în",
  "574": "ма",
  "575": " and",
  "576": "де",
  "577": " ka",
  "578": " да",
  "579": "ди",
  "580": "ate",
  "581": "iz",
  "582": "ite",
  "583": "sk",
  "584": "ente",
  "585": " у",
  "586": " za",
  "587": " per",
  "588": " pri",
  "589": " im",
  "590": " som",
  "591": "da",
  "592": " of",
  "593": "τα",
  "594": " des",
  "595": "τι",
  "596": "ow",
  "597": "ве",
  "598": "ny",
  "599": " op",
  "600": "τε",
  "601": " ob",
  "602": " den",
  "603": " ro",
  "604": "ui",
  "605": " до",
  "606": "az",
  "607": " про",
  "608": "же",
  "609": " ve",
  "610": "ão",
  "611": " ko",
  "612": "iem",
  "613": "не",
  "614": " ver",
  "615": " die",
  "616": "ens",
  "617": " mo",
  "618": " as",
  "619": "gy",
  "620": "au",
  "621": "ort",
  "622": " δ",
  "623": " der",
  "624": " ș",
  "625": " van",
  "626": " min",
  "627": " ch",
  "628": "ier",
  "629": "lu",
  "630": "lo",
  "631": " og",
  "632": " att",
  "633": " то",
  "634": " č",
  "635": "ji",
  "636": "pr",
  "637": " var",
  "638": "du",
  "639": " та",
  "640": " tr",
  "641": " ab",
  "642": " om",
  "643": " να",
  "644": "що",
  "645": "ust",
  "646": "gen",
  "647": " sk",
  "648": "ми",
  "649": "ál",
  "650": "den",
  "651": "ff",
  "652": " by",
  "653": "mi",
  "654": "ás",
  "655": "ati",
  "656": " се",
  "657": " und",
  "658": " το",
  "659": " um",
  "660": "ля",
  "661": " est",
  "662": "га",
  "663": "all",
  "664": "ме",
  "665": " iz",
  "666": "eb",
  "667": "ans",
  "668": " τη",
  "669": "op",
  "670": "мо",
  "671": " мо",
  "672": " от",
  "673": "ga",
  "674": " mu",
  "675": " а",
  "676": "ys",
  "677": " pas",
  "678": " ка",
  "679": " nu",
  "680": " к",
  "681": " Z",
  "682": " del",
  "683": " mi",
  "684": "dz",
  "685": "għ",
  "686": " tal",
  "687": " med",
  "688": " tak",
  "689": " och",
  "690": "kt",
  "691": " ac",
  "692": " am",
  "693": "ní",
  "694": " au",
  "695": "nd",
  "696": "πο",
  "697": "ont",
  "698": " man",
  "699": " pe",
  "700": "iti",
  "701": " και",
  "702": " pod",
  "703": "sz",
  "704": " și",
  "705": "ej",
  "706": "ki",
  "707": " pl",
  "708": " ku",
  "709": " av",
  "710": " ви",
  "711": "ord",
  "712": "ha",
  "713": " het",
  "714": "ada",
  "715": "το",
  "716": "ρο",
  "717": " pos",
  "718": " т",
  "719": "tä",
  "720": "iet",
  "721": "cht",
  "722": "ale",
  "723": "ру",
  "724": "ina",
  "725": "ck",
  "726": "po",
  "727": " že",
  "728": "wa",
  "729": "ρα",
  "730": " tu",
  "731": "ade",
  "732": " nie",
  "733": " έ",
  "734": " sz",
  "735": "ili",
  "736": "ba",
  "737": "át",
  "738": " på",
  "739": "pe",
  "740": " ό",
  "741": "по",
  "742": " ра",
  "743": " ex",
  "744": "ija",
  "745": "iss",
  "746": " em",
  "747": "ala",
  "748": "ber",
  "749": " ц",
  "750": " we",
  "751": "gi",
  "752": " és",
  "753": " ik",
  "754": "μα",
  "755": "ше",
  "756": " os",
  "757": " Т",
  "758": " kom",
  "759": "zi",
  "760": " γ",
  "761": "ation",
  "762": "ond",
  "763": "mer",
  "764": "yt",
  "765": " för",
  "766": " sam",
  "767": " ap",
  "768": " ol",
  "769": "ts",
  "770": "be",
  "771": "ні",
  "772": " va",
  "773": "ato",
  "774": " che",
  "775": "че",
  "776": "чи",
  "777": "za",
  "778": " pu",
  "779": "хо",
  "780": " să",
  "781": "ete",
  "782": " een",
  "783": " għ",
  "784": "ät",
  "785": "ven",
  "786": "for",
  "787": "ile",
  "788": " az",
  "789": "τη",
  "790": "bi",
  "791": "jo",
  "792": " че",
  "793": "né",
  "794": "tor",
  "795": "vi",
  "796": "ca",
  "797": " ri",
  "798": "ți",
  "799": " af",
  "800": "ons",
  "801": "ista",
  "802": "äl",
  "803": "му",
  "804": "nie",
  "805": " э",
  "806": "до",
  "807": "ικ",
  "808": " por",
  "809": " і",
  "810": "mo",
  "811": "ug",
  "812": " Н",
  "813": " he",
  "814": "ogy",
  "815": " para",
  "816": "und",
  "817": " das",
  "818": " lo",
  "819": " εί",
  "820": " men",
  "821": "és",
  "822": " що",
  "823": "pl",
  "824": "με",
  "825": "men",
  "826": " ter",
  "827": "ня",
  "828": " В",
  "829": " του",
  "830": "ben",
  "831": "ны",
  "832": " à",
  "833": " har",
  "834": "се",
  "835": " ha",
  "836": "bu",
  "837": " pol",
  "838": " De",
  "839": " or",
  "840": " ο",
  "841": "rav",
  "842": " ein",
  "843": " при",
  "844": "di",
  "845": "so",
  "846": "за",
  "847": "per",
  "848": "art",
  "849": " pa",
  "850": " les",
  "851": " vid",
  "852": " cu",
  "853": " kad",
  "854": " vis",
  "855": "oll",
  "856": " ki",
  "857": " är",
  "858": "rat",
  "859": "ча",
  "860": " dat",
  "861": "ett",
  "862": " что",
  "863": "hr",
  "864": "che",
  "865": " hogy",
  "866": "бо",
  "867": " co",
  "868": "dy",
  "869": " it",
  "870": "ando",
  "871": " En",
  "872": " ce",
  "873": " ge",
  "874": "ung",
  "875": " kan",
  "876": "сто",
  "877": "jen",
  "878": " ser",
  "879": "ще",
  "880": " Ja",
  "881": "ih",
  "882": " го",
  "883": "си",
  "884": "ци",
  "885": "ara",
  "886": " sv",
  "887": "ρι",
  "888": " με",
  "889": " ż",
  "890": "ies",
  "891": " Se",
  "892": " In",
  "893": "bl",
  "894": "ado",
  "895": " jo",
  "896": "ult",
  "897": "jon",
  "898": "res",
  "899": "že",
  "900": " met",
  "901": "der",
  "902": "gu",
  "903": " til",
  "904": " П",
  "905": " meg",
  "906": " ü",
  "907": "ér",
  "908": " бу",
  "909": " una",
  "910": "ram",
  "911": "ση",
  "912": " ho",
  "913": "ym",
  "914": "ку",
  "915": "ich",
  "916": "ore",
  "917": "εί",
  "918": " из",
  "919": "ід",
  "920": "án",
  "921": " tai",
  "922": " С",
  "923": "co",
  "924": " was",
  "925": "ila",
  "926": "ement",
  "927": "νο",
  "928": " kon",
  "929": " ist",
  "930": "ím",
  "931": "pa",
  "932": "ela",
  "933": " nem",
  "934": " val",
  "935": "ata",
  "936": " tem",
  "937": "ang",
  "938": " tie",
  "939": " pot",
  "940": "esti",
  "941": "ón",
  "942": "int",
  "943": "сти",
  "944": " Д",
  "945": "ста",
  "946": "ento",
  "947": "elle",
  "948": "cz",
  "949": " dar",
  "950": " г",
  "951": "ши",
  "952": " пре",
  "953": "bo",
  "954": "ede",
  "955": "red",
  "956": " lu",
  "957": "πό",
  "958": "tr",
  "959": "que",
  "960": "ler",
  "961": "ard",
  "962": " Ma",
  "963": "ego",
  "964": " Al",
  "965": "зи",
  "966": "ну",
  "967": "ini",
  "968": "tav",
  "969": " ei",
  "970": " egy",
  "971": " vol",
  "972": "amo",
  "973": "ib",
  "974": "ste",
  "975": " об",
  "976": "ер",
  "977": "ita",
  "978": "ana",
  "979": "ár",
  "980": "жи",
  "981": "kl",
  "982": " во",
  "983": " те",
  "984": "ijn",
  "985": "лю",
  "986": "сь",
  "987": "ég",
  "988": "ht",
  "989": "isk",
  "990": " Y",
  "991": "nen",
  "992": "ega",
  "993": " tra",
  "994": "ám",
  "995": "nos",
  "996": "cu",
  "997": "ako",
  "998": "ave",
  "999": " oli",
  "1000": " К",
  "1001": " kas",
  "1002": "go",
  "1003": " sem",
  "1004": " To",
  "1005": "ama",
  "1006": "rit",
  "1007": "ναι",
  "1008": "ning",
  "1009": " κα",
  "1010": " М",
  "1011": " că",
  "1012": "ów",
  "1013": "jem",
  "1014": "ър",
  "1015": "ít",
  "1016": "kk",
  "1017": " jed",
  "1018": "ise",
  "1019": " си",
  "1020": " bi",
  "1021": " res",
  "1022": "ých",
  "1023": " kun",
  "1024": " ма",
  "1025": " ale",
  "1026": "era",
  "1027": " mit",
  "1028": "las",
  "1029": "år",
  "1030": " Ne",
  "1031": " Je",
  "1032": " się",
  "1033": " ми",
  "1034": "ly",
  "1035": " θ",
  "1036": " zu",
  "1037": " ú",
  "1038": " fil",
  "1039": "ora",
  "1040": "ния",
  "1041": "att",
  "1042": " bu",
  "1043": "olo",
  "1044": " dem",
  "1045": "ika",
  "1046": "ami",
  "1047": "ito",
  "1048": "eli",
  "1049": "ano",
  "1050": " that",
  "1051": "zt",
  "1052": " О",
  "1053": "áv",
  "1054": "ів",
  "1055": "lig",
  "1056": " για",
  "1057": " př",
  "1058": "ние",
  "1059": "ду",
  "1060": "elt",
  "1061": "би",
  "1062": " fin",
  "1063": " viņ",
  "1064": "ία",
  "1065": "mu",
  "1066": "eda",
  "1067": " sig",
  "1068": " ħ",
  "1069": "υτ",
  "1070": "ων",
  "1071": "uro",
  "1072": "ūs",
  "1073": "eren",
  "1074": " де",
  "1075": "ct",
  "1076": " ich",
  "1077": "λλ",
  "1078": "len",
  "1079": "αν",
  "1080": "ari",
  "1081": " iš",
  "1082": "sp",
  "1083": "ces",
  "1084": " vy",
  "1085": "ida",
  "1086": "лу",
  "1087": " hu",
  "1088": " į",
  "1089": "ās",
  "1090": " uz",
  "1091": " inter",
  "1092": " ро",
  "1093": "agħ",
  "1094": "ky",
  "1095": "εν",
  "1096": "ono",
  "1097": "cia",
  "1098": "ry",
  "1099": "ori",
  "1100": " Il",
  "1101": " ent",
  "1102": " pra",
  "1103": " my",
  "1104": "ille",
  "1105": " Es",
  "1106": "ft",
  "1107": " dis",
  "1108": " pers",
  "1109": " είναι",
  "1110": " ad",
  "1111": " all",
  "1112": "ani",
  "1113": "unt",
  "1114": " Un",
  "1115": "τικ",
  "1116": "one",
  "1117": " tre",
  "1118": " fr",
  "1119": "ante",
  "1120": " И",
  "1121": "жа",
  "1122": "sen",
  "1123": " ότι",
  "1124": "oj",
  "1125": " это",
  "1126": "ві",
  "1127": " ke",
  "1128": "ār",
  "1129": "ane",
  "1130": "па",
  "1131": "do",
  "1132": "ame",
  "1133": "äm",
  "1134": "ici",
  "1135": "ment",
  "1136": " cont",
  "1137": "со",
  "1138": " που",
  "1139": "ban",
  "1140": "ica",
  "1141": " mis",
  "1142": "ет",
  "1143": "alt",
  "1144": "ül",
  "1145": "én",
  "1146": " è",
  "1147": "vat",
  "1148": " ty",
  "1149": " gr",
  "1150": " din",
  "1151": "ön",
  "1152": " са",
  "1153": " από",
  "1154": " los",
  "1155": " mod",
  "1156": "ene",
  "1157": " бы",
  "1158": "itu",
  "1159": " но",
  "1160": "led",
  "1161": " Det",
  "1162": "ού",
  "1163": "use",
  "1164": " bet",
  "1165": " este",
  "1166": "ря",
  "1167": " зна",
  "1168": " την",
  "1169": " St",
  "1170": " ut",
  "1171": "enn",
  "1172": " pi",
  "1173": " ze",
  "1174": "uk",
  "1175": "este",
  "1176": "zn",
  "1177": " mar",
  "1178": "ного",
  "1179": " ре",
  "1180": " you",
  "1181": " till",
  "1182": " Q",
  "1183": "ione",
  "1184": "či",
  "1185": " han",
  "1186": "inu",
  "1187": " tas",
  "1188": "pu",
  "1189": "ink",
  "1190": "itt",
  "1191": " ak",
  "1192": " dan",
  "1193": " раз",
  "1194": " pour",
  "1195": " це",
  "1196": " hab",
  "1197": " tod",
  "1198": "äh",
  "1199": "chen",
  "1200": "bli",
  "1201": "τά",
  "1202": "tiv",
  "1203": " wir",
  "1204": " imp",
  "1205": "ice",
  "1206": "zz",
  "1207": "пи",
  "1208": "eri",
  "1209": " sch",
  "1210": " ti",
  "1211": " ju",
  "1212": " ot",
  "1213": " tik",
  "1214": "isi",
  "1215": " со",
  "1216": "iek",
  "1217": "entru",
  "1218": " jag",
  "1219": "yn",
  "1220": " dob",
  "1221": "enti",
  "1222": "рі",
  "1223": " så",
  "1224": "ima",
  "1225": " χ",
  "1226": "ert",
  "1227": " raz",
  "1228": "ied",
  "1229": "wo",
  "1230": "ime",
  "1231": "ino",
  "1232": " pat",
  "1233": " że",
  "1234": "ρά",
  "1235": "ту",
  "1236": "ose",
  "1237": " kur",
  "1238": " pal",
  "1239": "her",
  "1240": "tion",
  "1241": " võ",
  "1242": " bil",
  "1243": " ва",
  "1244": "ουν",
  "1245": " No",
  "1246": " nek",
  "1247": "še",
  "1248": "we",
  "1249": " inte",
  "1250": " ved",
  "1251": " sav",
  "1252": "ger",
  "1253": " Я",
  "1254": " see",
  "1255": "ken",
  "1256": "ši",
  "1257": " Ch",
  "1258": "ema",
  "1259": " А",
  "1260": "άν",
  "1261": " jeg",
  "1262": "pi",
  "1263": " fa",
  "1264": " mai",
  "1265": "eni",
  "1266": " ga",
  "1267": "ide",
  "1268": "сть",
  "1269": " ste",
  "1270": "пе",
  "1271": " συ",
  "1272": "les",
  "1273": "ux",
  "1274": " sta",
  "1275": "ін",
  "1276": " nad",
  "1277": "ės",
  "1278": " як",
  "1279": "val",
  "1280": "ém",
  "1281": "emm",
  "1282": " uh",
  "1283": " br",
  "1284": " js",
  "1285": " zijn",
  "1286": "inen",
  "1287": " las",
  "1288": "var",
  "1289": " care",
  "1290": "nu",
  "1291": "usi",
  "1292": "amente",
  "1293": "pre",
  "1294": " επ",
  "1295": " вы",
  "1296": "ää",
  "1297": "unk",
  "1298": "ike",
  "1299": "het",
  "1300": " ten",
  "1301": " sie",
  "1302": "ться",
  "1303": "ía",
  "1304": "ür",
  "1305": " An",
  "1306": " dom",
  "1307": "tig",
  "1308": "ser",
  "1309": " La",
  "1310": "tre",
  "1311": "amos",
  "1312": " τα",
  "1313": " tro",
  "1314": " non",
  "1315": " q",
  "1316": " fi",
  "1317": "man",
  "1318": "ги",
  "1319": " pentru",
  "1320": "ισ",
  "1321": " bo",
  "1322": " съ",
  "1323": "ρε",
  "1324": " η",
  "1325": "up",
  "1326": " kol",
  "1327": "ži",
  "1328": "ām",
  "1329": " aby",
  "1330": " gen",
  "1331": " tam",
  "1332": "ova",
  "1333": " Le",
  "1334": "ese",
  "1335": " Α",
  "1336": " wh",
  "1337": "ove",
  "1338": "ολ",
  "1339": " Sie",
  "1340": " β",
  "1341": "лі",
  "1342": " ф",
  "1343": "imo",
  "1344": "vis",
  "1345": " une",
  "1346": "ρό",
  "1347": " wa",
  "1348": "ně",
  "1349": "ott",
  "1350": " jak",
  "1351": " бе",
  "1352": " fu",
  "1353": "eta",
  "1354": "van",
  "1355": "ét",
  "1356": "uma",
  "1357": " nä",
  "1358": "uj",
  "1359": " Vi",
  "1360": "esta",
  "1361": " fo",
  "1362": " ikke",
  "1363": " kien",
  "1364": "mente",
  "1365": " може",
  "1366": " ни",
  "1367": "ums",
  "1368": " että",
  "1369": " hän",
  "1370": "ije",
  "1371": " nos",
  "1372": "ige",
  "1373": "āk",
  "1374": " как",
  "1375": " vien",
  "1376": "sta",
  "1377": " mil",
  "1378": "ero",
  "1379": "ці",
  "1380": " reg",
  "1381": "lj",
  "1382": " Qu",
  "1383": "ого",
  "1384": "oli",
  "1385": " jest",
  "1386": "cie",
  "1387": "esto",
  "1388": " over",
  "1389": "af",
  "1390": " хо",
  "1391": " φ",
  "1392": " αυτ",
  "1393": " στο",
  "1394": "joni",
  "1395": " dru",
  "1396": "ται",
  "1397": " aut",
  "1398": "σε",
  "1399": " voor",
  "1400": " mal",
  "1401": "pt",
  "1402": "ras",
  "1403": "ån",
  "1404": "eme",
  "1405": "ła",
  "1406": "cion",
  "1407": " Na",
  "1408": " vous",
  "1409": " wer",
  "1410": "urs",
  "1411": "ør",
  "1412": "ры",
  "1413": "ick",
  "1414": "cê",
  "1415": " nas",
  "1416": " ö",
  "1417": "ção",
  "1418": " kr",
  "1419": "ena",
  "1420": "ха",
  "1421": " uma",
  "1422": " vai",
  "1423": "hom",
  "1424": " ind",
  "1425": " все",
  "1426": " zn",
  "1427": " como",
  "1428": "ins",
  "1429": "ende",
  "1430": " mor",
  "1431": "ере",
  "1432": " това",
  "1433": " als",
  "1434": "ταν",
  "1435": "ely",
  "1436": " svo",
  "1437": " ud",
  "1438": "tó",
  "1439": " vel",
  "1440": "пра",
  "1441": " us",
  "1442": "zen",
  "1443": "hn",
  "1444": "ción",
  "1445": " Б",
  "1446": " vil",
  "1447": "ps",
  "1448": " naj",
  "1449": "une",
  "1450": " yra",
  "1451": " x",
  "1452": " roz",
  "1453": "мен",
  "1454": " ktor",
  "1455": " go",
  "1456": "wi",
  "1457": "aks",
  "1458": "ella",
  "1459": " probl",
  "1460": "ity",
  "1461": " θα",
  "1462": " bar",
  "1463": "са",
  "1464": "σει",
  "1465": " mais",
  "1466": " αν",
  "1467": " То",
  "1468": " sl",
  "1469": " comp",
  "1470": " não",
  "1471": "wn",
  "1472": "ive",
  "1473": " von",
  "1474": " qui",
  "1475": "vel",
  "1476": "lich",
  "1477": "nosti",
  "1478": "min",
  "1479": " war",
  "1480": "uje",
  "1481": " niet",
  "1482": " ή",
  "1483": "ιο",
  "1484": "iau",
  "1485": "ään",
  "1486": "ým",
  "1487": "μέ",
  "1488": "ament",
  "1489": "ole",
  "1490": " sin",
  "1491": " not",
  "1492": " Ar",
  "1493": " pom",
  "1494": " vor",
  "1495": "āt",
  "1496": "por",
  "1497": " bud",
  "1498": " wy",
  "1499": "ба",
  "1500": "isti",
  "1501": " aj",
  "1502": " The",
  "1503": " tur",
  "1504": " sur",
  "1505": "ят",
  "1506": "jet",
  "1507": "gan",
  "1508": " Ε",
  "1509": " kor",
  "1510": "iex",
  "1511": " nicht",
  "1512": " dal",
  "1513": "ρί",
  "1514": "eld",
  "1515": "іль",
  "1516": "let",
  "1517": " kar",
  "1518": " dr",
  "1519": "uri",
  "1520": "by",
  "1521": "iden",
  "1522": "ern",
  "1523": " ako",
  "1524": " σε",
  "1525": "că",
  "1526": "bil",
  "1527": " dans",
  "1528": "utta",
  "1529": "asta",
  "1530": " sm",
  "1531": "ret",
  "1532": " λ",
  "1533": "ido",
  "1534": "age",
  "1535": " her",
  "1536": " προ",
  "1537": " mas",
  "1538": "inn",
  "1539": " бо",
  "1540": " dass",
  "1541": " пра",
  "1542": "kom",
  "1543": " З",
  "1544": " mat",
  "1545": " kā",
  "1546": " El",
  "1547": " від",
  "1548": "ší",
  "1549": " wie",
  "1550": "pro",
  "1551": " tar",
  "1552": " tud",
  "1553": " ca",
  "1554": "kon",
  "1555": " πε",
  "1556": " па",
  "1557": "lim",
  "1558": " bes",
  "1559": " kai",
  "1560": "ros",
  "1561": " для",
  "1562": " pred",
  "1563": "ву",
  "1564": "νε",
  "1565": " era",
  "1566": " ave",
  "1567": " bū",
  "1568": "nik",
  "1569": "ith",
  "1570": " któ",
  "1571": "ors",
  "1572": "щи",
  "1573": " ста",
  "1574": " tom",
  "1575": " mus",
  "1576": " gal",
  "1577": "cer",
  "1578": "tt",
  "1579": " Š",
  "1580": " leg",
  "1581": "rij",
  "1582": " Τ",
  "1583": " Euro",
  "1584": " Tai",
  "1585": "form",
  "1586": " ст",
  "1587": " ме",
  "1588": " div",
  "1589": "ον",
  "1590": " ду",
  "1591": "ска",
  "1592": " fl",
  "1593": " auf",
  "1594": " cons",
  "1595": " ci",
  "1596": " так",
  "1597": "ket",
  "1598": " kö",
  "1599": " ali",
  "1600": " dos",
  "1601": "ουμε",
  "1602": "vad",
  "1603": " str",
  "1604": "itä",
  "1605": "ase",
  "1606": " nog",
  "1607": "ann",
  "1608": "лен",
  "1609": "fic",
  "1610": " υ",
  "1611": "fer",
  "1612": " Κ",
  "1613": " сво",
  "1614": "elo",
  "1615": "ec",
  "1616": "pos",
  "1617": " sen",
  "1618": " nous",
  "1619": " Com",
  "1620": " ли",
  "1621": "зо",
  "1622": " sim",
  "1623": " más",
  "1624": " δεν",
  "1625": " Po",
  "1626": "īb",
  "1627": " gl",
  "1628": " prog",
  "1629": "ekk",
  "1630": "ure",
  "1631": " πα",
  "1632": "ски",
  "1633": " sc",
  "1634": " tri",
  "1635": " sob",
  "1636": " kui",
  "1637": " ag",
  "1638": "kun",
  "1639": " bl",
  "1640": " ще",
  "1641": "ών",
  "1642": " hm",
  "1643": "ρέ",
  "1644": "cy",
  "1645": "tim",
  "1646": " ji",
  "1647": " have",
  "1648": "alo",
  "1649": " ole",
  "1650": "ól",
  "1651": "vet",
  "1652": "rt",
  "1653": " Tak",
  "1654": " person",
  "1655": " ча",
  "1656": " tagħ",
  "1657": "asi",
  "1658": " στη",
  "1659": "šan",
  "1660": "zd",
  "1661": " fel",
  "1662": " inc",
  "1663": "EE",
  "1664": "λο",
  "1665": " ένα",
  "1666": " ве",
  "1667": " você",
  "1668": " mig",
  "1669": " už",
  "1670": "ща",
  "1671": " Mar",
  "1672": "ág",
  "1673": " heb",
  "1674": "ēs",
  "1675": " vä",
  "1676": " Da",
  "1677": " bol",
  "1678": " ih",
  "1679": "ści",
  "1680": "vor",
  "1681": "št",
  "1682": "λα",
  "1683": " sus",
  "1684": "ker",
  "1685": " cs",
  "1686": " kter",
  "1687": "uld",
  "1688": "eks",
  "1689": " nes",
  "1690": "сно",
  "1691": "bb",
  "1692": "ava",
  "1693": " alle",
  "1694": " Par",
  "1695": "war",
  "1696": "ēj",
  "1697": "iko",
  "1698": "rad",
  "1699": "nost",
  "1700": " pla",
  "1701": "yl",
  "1702": "par",
  "1703": "ovan",
  "1704": "ân",
  "1705": " dé",
  "1706": " vers",
  "1707": "nak",
  "1708": " vide",
  "1709": " eu",
  "1710": "ette",
  "1711": " cer",
  "1712": "lik",
  "1713": "мі",
  "1714": " are",
  "1715": "oni",
  "1716": "ák",
  "1717": " ou",
  "1718": " pov",
  "1719": "hed",
  "1720": " ah",
  "1721": "gel",
  "1722": "hen",
  "1723": "ło",
  "1724": "ак",
  "1725": "hu",
  "1726": "ний",
  "1727": "ün",
  "1728": "ss",
  "1729": " don",
  "1730": "це",
  "1731": " hat",
  "1732": "κε",
  "1733": " х",
  "1734": " nov",
  "1735": "hat",
  "1736": "imi",
  "1737": " mind",
  "1738": " tiegħ",
  "1739": " buvo",
  "1740": " inv",
  "1741": "oc",
  "1742": "ner",
  "1743": " car",
  "1744": "λε",
  "1745": "él",
  "1746": " produ",
  "1747": "kol",
  "1748": "ados",
  "1749": " tä",
  "1750": "fter",
  "1751": " gro",
  "1752": " Be",
  "1753": "nej",
  "1754": "yst",
  "1755": "almente",
  "1756": " Σ",
  "1757": " plus",
  "1758": " Pro",
  "1759": "жно",
  "1760": "áz",
  "1761": "ekt",
  "1762": "бе",
  "1763": " mer",
  "1764": "nes",
  "1765": " pie",
  "1766": " τι",
  "1767": "asti",
  "1768": "ните",
  "1769": " Te",
  "1770": "agy",
  "1771": " ć",
  "1772": " mog",
  "1773": " ба",
  "1774": "ulle",
  "1775": "its",
  "1776": "ativ",
  "1777": "oti",
  "1778": "my",
  "1779": " τον",
  "1780": "ats",
  "1781": "льно",
  "1782": " По",
  "1783": "ona",
  "1784": " pres",
  "1785": "kel",
  "1786": " кото",
  "1787": " Ale",
  "1788": " aan",
  "1789": " пере",
  "1790": "rem",
  "1791": " wi",
  "1792": "ingap",
  "1793": "су",
  "1794": "āj",
  "1795": "ità",
  "1796": " id",
  "1797": "yv",
  "1798": " Е",
  "1799": "ingen",
  "1800": " мен",
  "1801": "лед",
  "1802": "ater",
  "1803": "ue",
  "1804": " tran",
  "1805": " Me",
  "1806": "σι",
  "1807": " oma",
  "1808": "ilo",
  "1809": " Π",
  "1810": " sol",
  "1811": " dig",
  "1812": "ство",
  "1813": " Jo",
  "1814": "ор",
  "1815": "ah",
  "1816": " eller",
  "1817": " Sch",
  "1818": "ша",
  "1819": "oč",
  "1820": " μα",
  "1821": " под",
  "1822": "oz",
  "1823": "λη",
  "1824": " prin",
  "1825": " kl",
  "1826": "τή",
  "1827": " лю",
  "1828": "ско",
  "1829": " biex",
  "1830": " eine",
  "1831": " ré",
  "1832": "чно",
  "1833": " dz",
  "1834": "emos",
  "1835": "akt",
  "1836": "ær",
  "1837": " dire",
  "1838": "ass",
  "1839": " għal",
  "1840": " up",
  "1841": "emb",
  "1842": " We",
  "1843": " dol",
  "1844": "jer",
  "1845": " έχ",
  "1846": "μο",
  "1847": "ura",
  "1848": " bija",
  "1849": " mon",
  "1850": " lai",
  "1851": " На",
  "1852": "esso",
  "1853": " Er",
  "1854": "cij",
  "1855": "iste",
  "1856": " én",
  "1857": " nap",
  "1858": "šk",
  "1859": "гу",
  "1860": "ysl",
  "1861": "сте",
  "1862": "ého",
  "1863": "ěl",
  "1864": " kap",
  "1865": "anti",
  "1866": " cor",
  "1867": "kr",
  "1868": " with",
  "1869": " Μ",
  "1870": "ong",
  "1871": " cre",
  "1872": "зу",
  "1873": "ande",
  "1874": "ív",
  "1875": " rec",
  "1876": " He",
  "1877": "ργ",
  "1878": " star",
  "1879": "νη",
  "1880": " zd",
  "1881": " tā",
  "1882": "czy",
  "1883": "hod",
  "1884": " ny",
  "1885": "cs",
  "1886": " cz",
  "1887": "ald",
  "1888": " У",
  "1889": " što",
  "1890": "ný",
  "1891": "ēr",
  "1892": "pli",
  "1893": " poz",
  "1894": " pop",
  "1895": " int",
  "1896": "ach",
  "1897": "ijiet",
  "1898": "anto",
  "1899": " Ich",
  "1900": " sich",
  "1901": "ome",
  "1902": "enta",
  "1903": " come",
  "1904": " kä",
  "1905": " sab",
  "1906": " bli",
  "1907": " app",
  "1908": "ád",
  "1909": " pon",
  "1910": "ем",
  "1911": "elen",
  "1912": "vol",
  "1913": " przy",
  "1914": " naš",
  "1915": "ais",
  "1916": "ând",
  "1917": " cam",
  "1918": "ння",
  "1919": " lah",
  "1920": " Ik",
  "1921": "åg",
  "1922": " Oh",
  "1923": " had",
  "1924": " mag",
  "1925": "rie",
  "1926": " κά",
  "1927": "λλά",
  "1928": " nav",
  "1929": "ły",
  "1930": "ρω",
  "1931": "ρη",
  "1932": " mill",
  "1933": "pri",
  "1934": " kont",
  "1935": "ří",
  "1936": " nor",
  "1937": " Men",
  "1938": " esta",
  "1939": " zo",
  "1940": " maj",
  "1941": "вер",
  "1942": " ru",
  "1943": "des",
  "1944": " zap",
  "1945": " sag",
  "1946": " pou",
  "1947": " дру",
  "1948": " Ta",
  "1949": " би",
  "1950": " Ο",
  "1951": "fi",
  "1952": " für",
  "1953": " vý",
  "1954": "ėl",
  "1955": " aus",
  "1956": "yk",
  "1957": " Jag",
  "1958": "fe",
  "1959": " ά",
  "1960": " So",
  "1961": " kell",
  "1962": "eti",
  "1963": "ull",
  "1964": "зна",
  "1965": " dit",
  "1966": " пред",
  "1967": "anie",
  "1968": "κα",
  "1969": " gra",
  "1970": "ties",
  "1971": " sel",
  "1972": "ams",
  "1973": "mis",
  "1974": " this",
  "1975": "endo",
  "1976": " And",
  "1977": " pak",
  "1978": " zá",
  "1979": "hi",
  "1980": " gu",
  "1981": " ur",
  "1982": "hd",
  "1983": " ger",
  "1984": " nat",
  "1985": " tot",
  "1986": "ení",
  "1987": " μια",
  "1988": "olog",
  "1989": " й",
  "1990": " Re",
  "1991": " hal",
  "1992": "zu",
  "1993": "ijo",
  "1994": " vir",
  "1995": " pad",
  "1996": " αυτό",
  "1997": "una",
  "1998": "su",
  "1999": "net",
  "2000": "пу",
  "2001": " fra",
  "2002": "mes",
  "2003": "land",
  "2004": " мы",
  "2005": " Vo",
  "2006": "ді",
  "2007": "osa",
  "2008": " É",
  "2009": " out",
  "2010": "osta",
  "2011": " Nu",
  "2012": "kö",
  "2013": "ades",
  "2014": "iten",
  "2015": "oma",
  "2016": " ie",
  "2017": " kõ",
  "2018": "cis",
  "2019": " let",
  "2020": " huwa",
  "2021": " kam",
  "2022": " vr",
  "2023": " cas",
  "2024": " sal",
  "2025": " god",
  "2026": "ová",
  "2027": " Ко",
  "2028": "anje",
  "2029": "wie",
  "2030": "esz",
  "2031": "lä",
  "2032": " está",
  "2033": " sono",
  "2034": " mes",
  "2035": "вати",
  "2036": "ului",
  "2037": "mas",
  "2038": "yd",
  "2039": "ъл",
  "2040": " ker",
  "2041": "ev",
  "2042": " има",
  "2043": " fost",
  "2044": "als",
  "2045": " или",
  "2046": "гра",
  "2047": " cel",
  "2048": " просто",
  "2049": " Р",
  "2050": " Pr",
  "2051": " mom",
  "2052": "ēl",
  "2053": " kuri",
  "2054": "xx",
  "2055": " tö",
  "2056": "oka",
  "2057": " bez",
  "2058": "жу",
  "2059": " can",
  "2060": " ide",
  "2061": " má",
  "2062": "ná",
  "2063": "ii",
  "2064": "ça",
  "2065": "iku",
  "2066": "лко",
  "2067": " Ha",
  "2068": "ната",
  "2069": " ш",
  "2070": " dok",
  "2071": " Singap",
  "2072": "сі",
  "2073": "στε",
  "2074": "ych",
  "2075": "ény",
  "2076": "gs",
  "2077": "ēt",
  "2078": " ő",
  "2079": "nih",
  "2080": " δια",
  "2081": "oro",
  "2082": " Het",
  "2083": " Jeg",
  "2084": "mit",
  "2085": "ew",
  "2086": "bar",
  "2087": "udz",
  "2088": " wor",
  "2089": "ът",
  "2090": " oc",
  "2091": "ći",
  "2092": " lab",
  "2093": "ico",
  "2094": " жи",
  "2095": "ores",
  "2096": " ez",
  "2097": " ov",
  "2098": " ї",
  "2099": "ble",
  "2100": "jud",
  "2101": "elj",
  "2102": " ai",
  "2103": "cent",
  "2104": " neg",
  "2105": " parti",
  "2106": " Die",
  "2107": "rol",
  "2108": " minn",
  "2109": " μπο",
  "2110": " tut",
  "2111": "ρχ",
  "2112": " cap",
  "2113": "гда",
  "2114": " volt",
  "2115": " Но",
  "2116": " prof",
  "2117": " seda",
  "2118": "sch",
  "2119": " pen",
  "2120": "бы",
  "2121": " gy",
  "2122": "ăr",
  "2123": "дно",
  "2124": "rov",
  "2125": "ania",
  "2126": " beg",
  "2127": "umu",
  "2128": " col",
  "2129": " Г",
  "2130": "rig",
  "2131": "isen",
  "2132": " kat",
  "2133": "lev",
  "2134": " ett",
  "2135": " ně",
  "2136": " nep",
  "2137": "ék",
  "2138": " parte",
  "2139": "pen",
  "2140": " ġ",
  "2141": " polit",
  "2142": "iej",
  "2143": "ād",
  "2144": "ty",
  "2145": "ρώ",
  "2146": "br",
  "2147": " vš",
  "2148": " ok",
  "2149": "бу",
  "2150": " son",
  "2151": "σα",
  "2152": "ată",
  "2153": "θε",
  "2154": "ajo",
  "2155": " ξ",
  "2156": " sú",
  "2157": "ιά",
  "2158": " væ",
  "2159": " väl",
  "2160": " kot",
  "2161": " alla",
  "2162": " jako",
  "2163": "lad",
  "2164": " fac",
  "2165": "ħal",
  "2166": " fuq",
  "2167": " nar",
  "2168": " še",
  "2169": " мі",
  "2170": " jsem",
  "2171": " živ",
  "2172": "issa",
  "2173": " μέ",
  "2174": " prze",
  "2175": "del",
  "2176": " Is",
  "2177": " ele",
  "2178": " dur",
  "2179": " като",
  "2180": "szy",
  "2181": " Ir",
  "2182": " inst",
  "2183": "жда",
  "2184": "чен",
  "2185": " ned",
  "2186": "afna",
  "2187": "ola",
  "2188": "īt",
  "2189": "ère",
  "2190": "igen",
  "2191": " ná",
  "2192": "ank",
  "2193": " import",
  "2194": " ну",
  "2195": "gl",
  "2196": "πε",
  "2197": " є",
  "2198": " mõ",
  "2199": "osti",
  "2200": "об",
  "2201": " των",
  "2202": "ете",
  "2203": "ovor",
  "2204": "uv",
  "2205": "els",
  "2206": "eto",
  "2207": " rel",
  "2208": "ют",
  "2209": "emo",
  "2210": " Th",
  "2211": " οι",
  "2212": "eno",
  "2213": " teg",
  "2214": "uni",
  "2215": " tako",
  "2216": " cent",
  "2217": "ité",
  "2218": "cul",
  "2219": " ont",
  "2220": " tag",
  "2221": " Et",
  "2222": " kes",
  "2223": "cho",
  "2224": "tak",
  "2225": "isu",
  "2226": "nek",
  "2227": " ин",
  "2228": "ument",
  "2229": "гато",
  "2230": "каза",
  "2231": " sind",
  "2232": "дин",
  "2233": " Så",
  "2234": "τό",
  "2235": " inf",
  "2236": "ца",
  "2237": "áll",
  "2238": "тел",
  "2239": " Č",
  "2240": " Han",
  "2241": "про",
  "2242": "taa",
  "2243": " smo",
  "2244": " lui",
  "2245": "ute",
  "2246": " diff",
  "2247": " part",
  "2248": "bre",
  "2249": "oks",
  "2250": "ēc",
  "2251": " ig",
  "2252": " qed",
  "2253": " кон",
  "2254": "τέ",
  "2255": " pār",
  "2256": " spe",
  "2257": "ті",
  "2258": "ġġ",
  "2259": "eten",
  "2260": " много",
  "2261": " tun",
  "2262": " tv",
  "2263": " alg",
  "2264": "ée",
  "2265": "ance",
  "2266": "nych",
  "2267": "aju",
  "2268": " mol",
  "2269": " sobre",
  "2270": "lus",
  "2271": " pok",
  "2272": " tim",
  "2273": "ány",
  "2274": "ally",
  "2275": "isten",
  "2276": " må",
  "2277": " Ц",
  "2278": " kommer",
  "2279": " μου",
  "2280": "kov",
  "2281": " has",
  "2282": " ¿",
  "2283": "onom",
  "2284": " uit",
  "2285": "αα",
  "2286": "ns",
  "2287": " πολ",
  "2288": "iec",
  "2289": " dv",
  "2290": " jūs",
  "2291": " vagy",
  "2292": "ść",
  "2293": " Э",
  "2294": "old",
  "2295": " въ",
  "2296": "cial",
  "2297": " роз",
  "2298": " ти",
  "2299": "ire",
  "2300": "ip",
  "2301": "erg",
  "2302": "iks",
  "2303": " vl",
  "2304": " mūs",
  "2305": " bij",
  "2306": " εν",
  "2307": " dies",
  "2308": " isso",
  "2309": "ijk",
  "2310": " mul",
  "2311": " στην",
  "2312": " Ez",
  "2313": " lahko",
  "2314": " mož",
  "2315": " Du",
  "2316": "hl",
  "2317": "ět",
  "2318": " Не",
  "2319": " Ș",
  "2320": "gt",
  "2321": " ví",
  "2322": "zer",
  "2323": " ska",
  "2324": " dra",
  "2325": " seg",
  "2326": " Х",
  "2327": "our",
  "2328": " geb",
  "2329": " sunt",
  "2330": " nam",
  "2331": "owa",
  "2332": " tek",
  "2333": "ved",
  "2334": "ства",
  "2335": "ões",
  "2336": " It",
  "2337": " gran",
  "2338": " program",
  "2339": " ant",
  "2340": "aire",
  "2341": "ност",
  "2342": " Si",
  "2343": " See",
  "2344": "σω",
  "2345": "vu",
  "2346": " end",
  "2347": " hij",
  "2348": " Έ",
  "2349": "lij",
  "2350": "iał",
  "2351": " Î",
  "2352": "iment",
  "2353": " ħafna",
  "2354": "rod",
  "2355": " ass",
  "2356": "aliz",
  "2357": "mel",
  "2358": "ята",
  "2359": " fol",
  "2360": "sti",
  "2361": "vid",
  "2362": " haben",
  "2363": " Mo",
  "2364": " della",
  "2365": " più",
  "2366": "forma",
  "2367": "ös",
  "2368": " Man",
  "2369": "ude",
  "2370": "ligt",
  "2371": "ето",
  "2372": " απο",
  "2373": "μά",
  "2374": "met",
  "2375": "emp",
  "2376": "assa",
  "2377": "cí",
  "2378": " нас",
  "2379": "жен",
  "2380": " upp",
  "2381": " kuid",
  "2382": "inā",
  "2383": " Η",
  "2384": " poč",
  "2385": "pad",
  "2386": "pres",
  "2387": "lar",
  "2388": " fam",
  "2389": "сли",
  "2390": "yb",
  "2391": "aka",
  "2392": "mar",
  "2393": " taip",
  "2394": "ран",
  "2395": "πα",
  "2396": "τί",
  "2397": "них",
  "2398": "ets",
  "2399": "ings",
  "2400": "avo",
  "2401": "οι",
  "2402": " finan",
  "2403": "yti",
  "2404": "ition",
  "2405": " As",
  "2406": "uks",
  "2407": " περι",
  "2408": "ämä",
  "2409": " alt",
  "2410": " ris",
  "2411": "té",
  "2412": "ira",
  "2413": " Und",
  "2414": "ton",
  "2415": " lä",
  "2416": "ren",
  "2417": "ider",
  "2418": "вы",
  "2419": " Og",
  "2420": " gan",
  "2421": "aten",
  "2422": "čno",
  "2423": " efter",
  "2424": " спо",
  "2425": " fe",
  "2426": " dev",
  "2427": "now",
  "2428": "entes",
  "2429": "ные",
  "2430": " vez",
  "2431": "usta",
  "2432": "uto",
  "2433": " rad",
  "2434": " pun",
  "2435": "koll",
  "2436": " Est",
  "2437": " dost",
  "2438": "спо",
  "2439": " akt",
  "2440": " oh",
  "2441": " вре",
  "2442": " under",
  "2443": "зва",
  "2444": " Л",
  "2445": " Im",
  "2446": " sku",
  "2447": "кий",
  "2448": " sil",
  "2449": " которы",
  "2450": " sua",
  "2451": "ars",
  "2452": " Да",
  "2453": " ost",
  "2454": "ээ",
  "2455": "elu",
  "2456": "ria",
  "2457": " hel",
  "2458": " kos",
  "2459": " kaip",
  "2460": " għand",
  "2461": "ioni",
  "2462": "jih",
  "2463": " ня",
  "2464": " net",
  "2465": " pap",
  "2466": " prost",
  "2467": "ты",
  "2468": "ють",
  "2469": " mēs",
  "2470": " här",
  "2471": "tek",
  "2472": " Am",
  "2473": "igt",
  "2474": "vē",
  "2475": "üü",
  "2476": " jos",
  "2477": "tait",
  "2478": " І",
  "2479": " hav",
  "2480": "шо",
  "2481": "reb",
  "2482": " pag",
  "2483": "ходи",
  "2484": "rid",
  "2485": " naar",
  "2486": " prav",
  "2487": "orn",
  "2488": " mot",
  "2489": "ίν",
  "2490": "cha",
  "2491": "ral",
  "2492": " continu",
  "2493": "ld",
  "2494": " far",
  "2495": " stud",
  "2496": " ess",
  "2497": " Ver",
  "2498": " он",
  "2499": "ības",
  "2500": "ėj",
  "2501": "ėjo",
  "2502": "kin",
  "2503": " kra",
  "2504": " avec",
  "2505": "εια",
  "2506": "raz",
  "2507": " problem",
  "2508": " ήταν",
  "2509": "σο",
  "2510": "pet",
  "2511": "ръ",
  "2512": "γμα",
  "2513": " organ",
  "2514": " vu",
  "2515": "ils",
  "2516": "чу",
  "2517": "azz",
  "2518": "дна",
  "2519": " pä",
  "2520": " len",
  "2521": " рабо",
  "2522": "če",
  "2523": "ätt",
  "2524": "ρεί",
  "2525": " werden",
  "2526": "ume",
  "2527": "ито",
  "2528": "arb",
  "2529": " jis",
  "2530": " they",
  "2531": "ín",
  "2532": " dec",
  "2533": "вори",
  "2534": " сто",
  "2535": " daug",
  "2536": " plan",
  "2537": " savo",
  "2538": "illa",
  "2539": " maar",
  "2540": "ès",
  "2541": " vad",
  "2542": "ilor",
  "2543": "ub",
  "2544": " qual",
  "2545": "gal",
  "2546": "hal",
  "2547": "вно",
  "2548": "кти",
  "2549": " су",
  "2550": " ди",
  "2551": "ack",
  "2552": " koji",
  "2553": "ική",
  "2554": "вен",
  "2555": " wo",
  "2556": " also",
  "2557": " någ",
  "2558": "lan",
  "2559": " За",
  "2560": " кра",
  "2561": " są",
  "2562": " Ч",
  "2563": " Den",
  "2564": " sme",
  "2565": " bed",
  "2566": " він",
  "2567": " zv",
  "2568": "вя",
  "2569": "get",
  "2570": " Viņ",
  "2571": "osi",
  "2572": "cip",
  "2573": " під",
  "2574": " stran",
  "2575": " hun",
  "2576": " tid",
  "2577": " Bet",
  "2578": "jeg",
  "2579": " õ",
  "2580": "cess",
  "2581": "raw",
  "2582": "ден",
  "2583": " които",
  "2584": "ных",
  "2585": " Kom",
  "2586": "mon",
  "2587": "oda",
  "2588": " Och",
  "2589": "irm",
  "2590": "jn",
  "2591": "ép",
  "2592": "area",
  "2593": "θη",
  "2594": " bien",
  "2595": " huma",
  "2596": "ovi",
  "2597": " kok",
  "2598": "essa",
  "2599": "ša",
  "2600": " ši",
  "2601": " hebben",
  "2602": " ba",
  "2603": "bol",
  "2604": " mak",
  "2605": " ști",
  "2606": "ska",
  "2607": "ész",
  "2608": "čin",
  "2609": " така",
  "2610": "hm",
  "2611": " prz",
  "2612": " sein",
  "2613": " siis",
  "2614": "vil",
  "2615": "ją",
  "2616": "λά",
  "2617": " put",
  "2618": "ua",
  "2619": " Ν",
  "2620": "ünk",
  "2621": " situ",
  "2622": "ей",
  "2623": "пре",
  "2624": " ін",
  "2625": " sell",
  "2626": "alla",
  "2627": "yslím",
  "2628": " sau",
  "2629": " ле",
  "2630": "wer",
  "2631": "isto",
  "2632": "pod",
  "2633": " enc",
  "2634": " New",
  "2635": " čas",
  "2636": "rar",
  "2637": "if",
  "2638": "rá",
  "2639": " bilo",
  "2640": "šu",
  "2641": " ven",
  "2642": "ee",
  "2643": "ρού",
  "2644": " буде",
  "2645": "тя",
  "2646": "leg",
  "2647": "esi",
  "2648": " му",
  "2649": " num",
  "2650": "πά",
  "2651": " pens",
  "2652": " hija",
  "2653": " samo",
  "2654": " selle",
  "2655": " sec",
  "2656": " like",
  "2657": " bom",
  "2658": "elf",
  "2659": "вля",
  "2660": "ért",
  "2661": " veľ",
  "2662": "tų",
  "2663": "vit",
  "2664": " Δ",
  "2665": "pon",
  "2666": "ță",
  "2667": "ük",
  "2668": " беше",
  "2669": "ât",
  "2670": "fin",
  "2671": " szer",
  "2672": " πο",
  "2673": "any",
  "2674": " Nie",
  "2675": "iga",
  "2676": " uns",
  "2677": " gru",
  "2678": " one",
  "2679": " пос",
  "2680": "χε",
  "2681": " but",
  "2682": "jed",
  "2683": "isa",
  "2684": " jot",
  "2685": "йте",
  "2686": " kön",
  "2687": " quando",
  "2688": "oi",
  "2689": " kal",
  "2690": " wat",
  "2691": " nost",
  "2692": " post",
  "2693": " Um",
  "2694": " sul",
  "2695": " nagy",
  "2696": " xi",
  "2697": " waar",
  "2698": "los",
  "2699": "sten",
  "2700": "esse",
  "2701": " tap",
  "2702": " sak",
  "2703": "anja",
  "2704": " Ze",
  "2705": "amento",
  "2706": "πει",
  "2707": "ają",
  "2708": " gre",
  "2709": " questo",
  "2710": "și",
  "2711": " Ali",
  "2712": " ку",
  "2713": " vet",
  "2714": "uden",
  "2715": " sn",
  "2716": "idu",
  "2717": " nej",
  "2718": "dzie",
  "2719": "ís",
  "2720": "ivers",
  "2721": " pog",
  "2722": " čo",
  "2723": "izz",
  "2724": "tai",
  "2725": " εκ",
  "2726": " ljud",
  "2727": " će",
  "2728": "τικό",
  "2729": " form",
  "2730": " taj",
  "2731": "cio",
  "2732": "indi",
  "2733": "ll",
  "2734": " sub",
  "2735": " чтобы",
  "2736": "vez",
  "2737": " gar",
  "2738": " най",
  "2739": "ish",
  "2740": " nik",
  "2741": "istä",
  "2742": "erd",
  "2743": " vz",
  "2744": "ez",
  "2745": " his",
  "2746": "нь",
  "2747": "oval",
  "2748": "λή",
  "2749": " επι",
  "2750": "inti",
  "2751": "ій",
  "2752": " arī",
  "2753": " sont",
  "2754": " щоб",
  "2755": " prie",
  "2756": " liv",
  "2757": " tõ",
  "2758": " moż",
  "2759": " стра",
  "2760": "avad",
  "2761": " ben",
  "2762": "ident",
  "2763": " lid",
  "2764": "īdz",
  "2765": " чи",
  "2766": "ales",
  "2767": "iter",
  "2768": "kal",
  "2769": "odu",
  "2770": " Și",
  "2771": " pass",
  "2772": "ване",
  "2773": "ony",
  "2774": "uste",
  "2775": "emme",
  "2776": "idad",
  "2777": " пла",
  "2778": "jat",
  "2779": "при",
  "2780": "miss",
  "2781": " kv",
  "2782": "ski",
  "2783": " will",
  "2784": " hand",
  "2785": "tra",
  "2786": " дума",
  "2787": " σα",
  "2788": " stor",
  "2789": "fa",
  "2790": " bel",
  "2791": "ăm",
  "2792": "кла",
  "2793": " għall",
  "2794": " hi",
  "2795": " tele",
  "2796": "ché",
  "2797": " kdy",
  "2798": "EEEE",
  "2799": "ється",
  "2800": " did",
  "2801": " Takže",
  "2802": " dist",
  "2803": "λέ",
  "2804": "дя",
  "2805": "ный",
  "2806": "ovat",
  "2807": "ós",
  "2808": "ții",
  "2809": "cija",
  "2810": "tic",
  "2811": " dej",
  "2812": "вите",
  "2813": " cr",
  "2814": "itet",
  "2815": " chi",
  "2816": "zione",
  "2817": " sed",
  "2818": "uss",
  "2819": "nud",
  "2820": " dag",
  "2821": "ations",
  "2822": "seb",
  "2823": " dov",
  "2824": " tan",
  "2825": "cep",
  "2826": "ție",
  "2827": "ίζ",
  "2828": " gi",
  "2829": "čen",
  "2830": " kako",
  "2831": "ωω",
  "2832": "δο",
  "2833": " solo",
  "2834": "waż",
  "2835": " Ho",
  "2836": "iska",
  "2837": " spr",
  "2838": " né",
  "2839": "yr",
  "2840": "φο",
  "2841": "mod",
  "2842": "nom",
  "2843": "kas",
  "2844": " Sp",
  "2845": "hte",
  "2846": " just",
  "2847": "ċċ",
  "2848": "āju",
  "2849": " hist",
  "2850": " å",
  "2851": "ват",
  "2852": " faz",
  "2853": "onn",
  "2854": " тако",
  "2855": "он",
  "2856": " его",
  "2857": " ś",
  "2858": " vra",
  "2859": " ανα",
  "2860": " skulle",
  "2861": " mě",
  "2862": " aqu",
  "2863": " bra",
  "2864": "vä",
  "2865": " know",
  "2866": "lio",
  "2867": "ula",
  "2868": "aja",
  "2869": "сту",
  "2870": " On",
  "2871": " Co",
  "2872": " cin",
  "2873": "alis",
  "2874": " hier",
  "2875": "vir",
  "2876": " asi",
  "2877": "īj",
  "2878": " já",
  "2879": " hát",
  "2880": " sor",
  "2881": "iva",
  "2882": " gener",
  "2883": " mond",
  "2884": "ότε",
  "2885": "lat",
  "2886": "ним",
  "2887": " tul",
  "2888": " hemm",
  "2889": "κό",
  "2890": "ild",
  "2891": " πολύ",
  "2892": " door",
  "2893": "esp",
  "2894": " ook",
  "2895": " joka",
  "2896": " sou",
  "2897": "bor",
  "2898": "zą",
  "2899": " ком",
  "2900": "esch",
  "2901": "ator",
  "2902": " esc",
  "2903": "пер",
  "2904": " wię",
  "2905": " Hän",
  "2906": "γο",
  "2907": " ä",
  "2908": "ovo",
  "2909": " În",
  "2910": " же",
  "2911": " nev",
  "2912": "hekk",
  "2913": " zna",
  "2914": " Fran",
  "2915": "hing",
  "2916": " ace",
  "2917": " EU",
  "2918": " dei",
  "2919": "νέ",
  "2920": "ől",
  "2921": " Це",
  "2922": " zač",
  "2923": " år",
  "2924": "gli",
  "2925": "кра",
  "2926": " ту",
  "2927": " nii",
  "2928": " prom",
  "2929": " hom",
  "2930": "uta",
  "2931": "ется",
  "2932": " Az",
  "2933": "чки",
  "2934": "rop",
  "2935": "arte",
  "2936": " eff",
  "2937": "ħħ",
  "2938": "être",
  "2939": "sto",
  "2940": " Та",
  "2941": " vend",
  "2942": " mida",
  "2943": " bas",
  "2944": " über",
  "2945": " Mas",
  "2946": " ed",
  "2947": " več",
  "2948": "ungen",
  "2949": "τικά",
  "2950": " aš",
  "2951": " Der",
  "2952": " коли",
  "2953": " Γ",
  "2954": "бва",
  "2955": "ód",
  "2956": "ικά",
  "2957": " Bo",
  "2958": " pet",
  "2959": "ep",
  "2960": "ποι",
  "2961": "cut",
  "2962": "ič",
  "2963": "łem",
  "2964": " kans",
  "2965": "imas",
  "2966": " само",
  "2967": "bal",
  "2968": "uda",
  "2969": " ret",
  "2970": " Nem",
  "2971": "oss",
  "2972": " när",
  "2973": "ρή",
  "2974": " tad",
  "2975": " ovat",
  "2976": " αλλά",
  "2977": "ște",
  "2978": "kar",
  "2979": " niin",
  "2980": " viņš",
  "2981": "ljen",
  "2982": " κάν",
  "2983": " trans",
  "2984": "ību",
  "2985": " vain",
  "2986": " Это",
  "2987": " pří",
  "2988": "ču",
  "2989": " kul",
  "2990": "ques",
  "2991": " zas",
  "2992": " они",
  "2993": "atud",
  "2994": "fici",
  "2995": "ikt",
  "2996": " його",
  "2997": " video",
  "2998": " disse",
  "2999": " ins",
  "3000": " Pa",
  "3001": "ea",
  "3002": "ūt",
  "3003": " film",
  "3004": "uw",
  "3005": " via",
  "3006": "änd",
  "3007": " Ge",
  "3008": "ines",
  "3009": "рябва",
  "3010": "anda",
  "3011": "tal",
  "3012": "agi",
  "3013": " вони",
  "3014": "chod",
  "3015": " kaž",
  "3016": " tego",
  "3017": "клю",
  "3018": " pan",
  "3019": "rd",
  "3020": "mal",
  "3021": "amis",
  "3022": " kli",
  "3023": " muito",
  "3024": " set",
  "3025": " εξ",
  "3026": "ции",
  "3027": "вър",
  "3028": " från",
  "3029": "nym",
  "3030": "kaz",
  "3031": "nog",
  "3032": "bra",
  "3033": "íte",
  "3034": "ке",
  "3035": " jie",
  "3036": " lig",
  "3037": "ъде",
  "3038": "ump",
  "3039": " beh",
  "3040": "ēja",
  "3041": " dwar",
  "3042": " jeho",
  "3043": "pra",
  "3044": " quel",
  "3045": " три",
  "3046": " fun",
  "3047": "itate",
  "3048": "emente",
  "3049": "zzjoni",
  "3050": "rei",
  "3051": " ζ",
  "3052": "lut",
  "3053": "oto",
  "3054": "har",
  "3055": " Και",
  "3056": "ře",
  "3057": "ред",
  "3058": " Sa",
  "3059": " köz",
  "3060": " või",
  "3061": " które",
  "3062": "вали",
  "3063": " super",
  "3064": " ļ",
  "3065": "ża",
  "3066": " Por",
  "3067": "uti",
  "3068": " доб",
  "3069": "ções",
  "3070": " Так",
  "3071": "ży",
  "3072": "inte",
  "3073": " ні",
  "3074": "able",
  "3075": "reg",
  "3076": " luc",
  "3077": "ικό",
  "3078": " At",
  "3079": " á",
  "3080": " deze",
  "3081": "tid",
  "3082": " turi",
  "3083": "urde",
  "3084": " оста",
  "3085": " neb",
  "3086": "nic",
  "3087": " Dar",
  "3088": " sist",
  "3089": "nim",
  "3090": " nel",
  "3091": "car",
  "3092": " euro",
  "3093": "yan",
  "3094": " aff",
  "3095": "urt",
  "3096": "три",
  "3097": " vast",
  "3098": "gr",
  "3099": "ivo",
  "3100": " blev",
  "3101": "AA",
  "3102": " які",
  "3103": "čiau",
  "3104": " Min",
  "3105": "amp",
  "3106": " което",
  "3107": " zm",
  "3108": " For",
  "3109": " from",
  "3110": " most",
  "3111": " mir",
  "3112": "που",
  "3113": " amely",
  "3114": "она",
  "3115": " mô",
  "3116": "ische",
  "3117": " einen",
  "3118": "sim",
  "3119": " tym",
  "3120": " Tas",
  "3121": " nim",
  "3122": " два",
  "3123": " aber",
  "3124": "мер",
  "3125": " comme",
  "3126": " zem",
  "3127": "xt",
  "3128": "lie",
  "3129": "iki",
  "3130": "ар",
  "3131": "íme",
  "3132": " tien",
  "3133": "enden",
  "3134": "fel",
  "3135": "yen",
  "3136": " inform",
  "3137": " rend",
  "3138": "ċi",
  "3139": "dan",
  "3140": " чу",
  "3141": " cil",
  "3142": "cket",
  "3143": " util",
  "3144": "aga",
  "3145": " Per",
  "3146": "ασ",
  "3147": " sä",
  "3148": "ция",
  "3149": " Ž",
  "3150": " zab",
  "3151": " cos",
  "3152": "żda",
  "3153": " Ми",
  "3154": " jew",
  "3155": " tout",
  "3156": " vēl",
  "3157": "idade",
  "3158": "zo",
  "3159": " strat",
  "3160": " dir",
  "3161": " bila",
  "3162": "itar",
  "3163": "eket",
  "3164": "ello",
  "3165": "port",
  "3166": "uten",
  "3167": "δε",
  "3168": " Su",
  "3169": "uns",
  "3170": "eft",
  "3171": " fog",
  "3172": " Ah",
  "3173": " voi",
  "3174": "hy",
  "3175": "fen",
  "3176": "śli",
  "3177": " zak",
  "3178": "iel",
  "3179": "єте",
  "3180": "erne",
  "3181": " слу",
  "3182": " kuin",
  "3183": "iny",
  "3184": " være",
  "3185": "πω",
  "3186": "ants",
  "3187": " того",
  "3188": "ього",
  "3189": " nach",
  "3190": " mutta",
  "3191": "amb",
  "3192": " oder",
  "3193": " пер",
  "3194": " Non",
  "3195": "æn",
  "3196": "itel",
  "3197": " slu",
  "3198": " Те",
  "3199": "ellen",
  "3200": "omen",
  "3201": " svoj",
  "3202": "ajú",
  "3203": "вле",
  "3204": " auch",
  "3205": "umi",
  "3206": "għu",
  "3207": "out",
  "3208": "chi",
  "3209": " wird",
  "3210": " ktoré",
  "3211": " Das",
  "3212": " jej",
  "3213": " Amer",
  "3214": "śmy",
  "3215": "jek",
  "3216": "klad",
  "3217": " koh",
  "3218": "pä",
  "3219": "lag",
  "3220": " Hu",
  "3221": "utt",
  "3222": "vent",
  "3223": "ēm",
  "3224": " loc",
  "3225": " zin",
  "3226": " але",
  "3227": "tää",
  "3228": " kaik",
  "3229": " ima",
  "3230": "over",
  "3231": "μη",
  "3232": "stru",
  "3233": "vien",
  "3234": "amas",
  "3235": "isse",
  "3236": "amen",
  "3237": "ivat",
  "3238": "áci",
  "3239": "žen",
  "3240": " acc",
  "3241": "ode",
  "3242": " entre",
  "3243": " ville",
  "3244": " sar",
  "3245": "τική",
  "3246": "ester",
  "3247": " You",
  "3248": " hade",
  "3249": "taj",
  "3250": " sti",
  "3251": "tit",
  "3252": " ties",
  "3253": " Tr",
  "3254": " tiegħu",
  "3255": "nem",
  "3256": "тому",
  "3257": "obb",
  "3258": " taf",
  "3259": "vá",
  "3260": " Ka",
  "3261": "abil",
  "3262": " kao",
  "3263": " mens",
  "3264": " Mis",
  "3265": "iver",
  "3266": " Dan",
  "3267": "oga",
  "3268": "ví",
  "3269": "вать",
  "3270": "hol",
  "3271": " cli",
  "3272": "han",
  "3273": " pris",
  "3274": "cher",
  "3275": "кі",
  "3276": "okat",
  "3277": "jav",
  "3278": "ted",
  "3279": "cc",
  "3280": " Ф",
  "3281": "str",
  "3282": " publi",
  "3283": " nom",
  "3284": "ną",
  "3285": " our",
  "3286": " skal",
  "3287": "ové",
  "3288": "ske",
  "3289": "för",
  "3290": "etti",
  "3291": " vie",
  "3292": " št",
  "3293": " Con",
  "3294": " lav",
  "3295": "sak",
  "3296": "kur",
  "3297": " prob",
  "3298": "ork",
  "3299": "öt",
  "3300": " keď",
  "3301": " viņa",
  "3302": "έρ",
  "3303": " redu",
  "3304": "odo",
  "3305": "fr",
  "3306": " sho",
  "3307": " sve",
  "3308": "chten",
  "3309": " tror",
  "3310": " arb",
  "3311": " žel",
  "3312": " dro",
  "3313": "ματα",
  "3314": " трябва",
  "3315": "ves",
  "3316": " tiet",
  "3317": " Това",
  "3318": "abb",
  "3319": "ник",
  "3320": " tiek",
  "3321": "νω",
  "3322": " bus",
  "3323": " main",
  "3324": " зро",
  "3325": "inter",
  "3326": "adas",
  "3327": "ită",
  "3328": "rai",
  "3329": "ital",
  "3330": " jsou",
  "3331": "ób",
  "3332": " få",
  "3333": " вси",
  "3334": "ця",
  "3335": "amme",
  "3336": " без",
  "3337": " kir",
  "3338": " jums",
  "3339": "rž",
  "3340": "хи",
  "3341": " Ro",
  "3342": " svoje",
  "3343": "īg",
  "3344": " pil",
  "3345": " mie",
  "3346": " ras",
  "3347": "lin",
  "3348": " тому",
  "3349": " Ei",
  "3350": " kann",
  "3351": "īgi",
  "3352": " foi",
  "3353": " pow",
  "3354": "éd",
  "3355": "rze",
  "3356": " laik",
  "3357": " there",
  "3358": " lie",
  "3359": "amat",
  "3360": " todos",
  "3361": " ul",
  "3362": " dou",
  "3363": " Ku",
  "3364": " informa",
  "3365": "ked",
  "3366": "ári",
  "3367": "ētu",
  "3368": " mint",
  "3369": "λι",
  "3370": " Les",
  "3371": "kus",
  "3372": "azione",
  "3373": " prí",
  "3374": " été",
  "3375": " пот",
  "3376": "лько",
  "3377": " tudi",
  "3378": " läh",
  "3379": "olu",
  "3380": "elijk",
  "3381": " dod",
  "3382": " mö",
  "3383": "τητα",
  "3384": " Ter",
  "3385": " bħal",
  "3386": " ση",
  "3387": "ných",
  "3388": "će",
  "3389": " lan",
  "3390": "cem",
  "3391": " dla",
  "3392": " pero",
  "3393": "gar",
  "3394": "chte",
  "3395": "ents",
  "3396": " vores",
  "3397": "illä",
  "3398": "ogra",
  "3399": " které",
  "3400": "enie",
  "3401": " lin",
  "3402": " kind",
  "3403": "lament",
  "3404": " когда",
  "3405": "oup",
  "3406": " dot",
  "3407": " asta",
  "3408": " X",
  "3409": " fait",
  "3410": " need",
  "3411": " напра",
  "3412": "ovať",
  "3413": " Har",
  "3414": " mid",
  "3415": " fat",
  "3416": " mel",
  "3417": "iji",
  "3418": " veel",
  "3419": "ġa",
  "3420": " sai",
  "3421": "zie",
  "3422": "ciones",
  "3423": "kār",
  "3424": " hen",
  "3425": "tura",
  "3426": " drž",
  "3427": " Pri",
  "3428": " nou",
  "3429": " ner",
  "3430": "ris",
  "3431": " azt",
  "3432": " wenn",
  "3433": "ром",
  "3434": "μό",
  "3435": " Ele",
  "3436": " сказа",
  "3437": "рт",
  "3438": " aktar",
  "3439": " Em",
  "3440": " rez",
  "3441": " cum",
  "3442": "edi",
  "3443": "τού",
  "3444": "тися",
  "3445": " bude",
  "3446": "heid",
  "3447": " Ak",
  "3448": " tol",
  "3449": "ан",
  "3450": " bek",
  "3451": "δα",
  "3452": "juk",
  "3453": "nia",
  "3454": " bara",
  "3455": "ому",
  "3456": " mult",
  "3457": "ellä",
  "3458": "ribu",
  "3459": "ister",
  "3460": " Wir",
  "3461": "så",
  "3462": " alebo",
  "3463": "mat",
  "3464": "idän",
  "3465": " gli",
  "3466": "kst",
  "3467": "else",
  "3468": "vers",
  "3469": " prod",
  "3470": " what",
  "3471": " Εί",
  "3472": " jih",
  "3473": "ction",
  "3474": " princip",
  "3475": " ao",
  "3476": " conc",
  "3477": "ában",
  "3478": "lem",
  "3479": " боль",
  "3480": " real",
  "3481": "τυ",
  "3482": "ным",
  "3483": " John",
  "3484": " meget",
  "3485": " ili",
  "3486": " more",
  "3487": " kif",
  "3488": " sit",
  "3489": "antes",
  "3490": " vara",
  "3491": " lil",
  "3492": " bardz",
  "3493": "ejn",
  "3494": " get",
  "3495": " nebo",
  "3496": " jā",
  "3497": " Pre",
  "3498": " Ab",
  "3499": " zb",
  "3500": "ujem",
  "3501": "imą",
  "3502": "jan",
  "3503": " bis",
  "3504": "вет",
  "3505": " teh",
  "3506": " ning",
  "3507": " Ko",
  "3508": " if",
  "3509": " tagħna",
  "3510": " syst",
  "3511": "għa",
  "3512": "tigt",
  "3513": " aiz",
  "3514": "kor",
  "3515": " över",
  "3516": "сля",
  "3517": "szyst",
  "3518": "SS",
  "3519": "γα",
  "3520": "kaan",
  "3521": "elli",
  "3522": " гра",
  "3523": "jar",
  "3524": " seu",
  "3525": "ρισ",
  "3526": " segu",
  "3527": " hans",
  "3528": "κο",
  "3529": "iju",
  "3530": " tied",
  "3531": "ję",
  "3532": "jas",
  "3533": " Mi",
  "3534": " тя",
  "3535": " Ad",
  "3536": " hod",
  "3537": "μβ",
  "3538": " θέ",
  "3539": "hren",
  "3540": " nez",
  "3541": "рен",
  "3542": " пи",
  "3543": " zam",
  "3544": " resp",
  "3545": " ban",
  "3546": " наши",
  "3547": "hts",
  "3548": "nou",
  "3549": "žit",
  "3550": " bru",
  "3551": " Car",
  "3552": " Ind",
  "3553": " proces",
  "3554": "ța",
  "3555": "uo",
  "3556": "фи",
  "3557": "pat",
  "3558": " Mais",
  "3559": " všet",
  "3560": "ksi",
  "3561": "tern",
  "3562": " män",
  "3563": "ρέπει",
  "3564": " вас",
  "3565": "cti",
  "3566": "zem",
  "3567": " exist",
  "3568": " kil",
  "3569": "ake",
  "3570": "iro",
  "3571": "tain",
  "3572": "jt",
  "3573": "adi",
  "3574": "фор",
  "3575": "ling",
  "3576": " gos",
  "3577": " heeft",
  "3578": " nuest",
  "3579": "šč",
  "3580": "aut",
  "3581": " Το",
  "3582": " plat",
  "3583": " mijn",
  "3584": " også",
  "3585": " před",
  "3586": "kli",
  "3587": " rig",
  "3588": " bre",
  "3589": " ус",
  "3590": "ző",
  "3591": "ign",
  "3592": " But",
  "3593": " Ent",
  "3594": " mí",
  "3595": " ві",
  "3596": "itas",
  "3597": " hyv",
  "3598": " vre",
  "3599": " άλλ",
  "3600": " essere",
  "3601": "jal",
  "3602": "υτό",
  "3603": " forma",
  "3604": "ogħ",
  "3605": "mä",
  "3606": "σουμε",
  "3607": " saj",
  "3608": " Ex",
  "3609": " hon",
  "3610": " jer",
  "3611": " když",
  "3612": " kül",
  "3613": "зво",
  "3614": "izi",
  "3615": " test",
  "3616": " Do",
  "3617": " spre",
  "3618": "chu",
  "3619": "ємо",
  "3620": "illi",
  "3621": " moment",
  "3622": " üt",
  "3623": " port",
  "3624": "pēc",
  "3625": " επί",
  "3626": " doll",
  "3627": "asz",
  "3628": "nego",
  "3629": " your",
  "3630": " biz",
  "3631": " hem",
  "3632": " aș",
  "3633": " полу",
  "3634": " fort",
  "3635": "нии",
  "3636": "lijk",
  "3637": " stat",
  "3638": "oso",
  "3639": " face",
  "3640": " біль",
  "3641": " jekk",
  "3642": " grande",
  "3643": "ph",
  "3644": " porque",
  "3645": "ħa",
  "3646": "lep",
  "3647": " bę",
  "3648": " Dob",
  "3649": "öra",
  "3650": " land",
  "3651": "ilt",
  "3652": "ėti",
  "3653": "мы",
  "3654": " mums",
  "3655": " njeg",
  "3656": " biti",
  "3657": "vé",
  "3658": " Od",
  "3659": "biamo",
  "3660": " anche",
  "3661": "rot",
  "3662": "рез",
  "3663": " ó",
  "3664": "ajā",
  "3665": " tw",
  "3666": "egen",
  "3667": "isia",
  "3668": " Ste",
  "3669": "θεί",
  "3670": "бле",
  "3671": " czy",
  "3672": " ec",
  "3673": " кой",
  "3674": "ikor",
  "3675": " ani",
  "3676": " дол",
  "3677": "add",
  "3678": " când",
  "3679": "ūr",
  "3680": " κατα",
  "3681": " worden",
  "3682": "lam",
  "3683": " vas",
  "3684": " прави",
  "3685": " stra",
  "3686": "jonijiet",
  "3687": " És",
  "3688": "itiv",
  "3689": "szer",
  "3690": "lov",
  "3691": " tema",
  "3692": " cette",
  "3693": " eks",
  "3694": " tor",
  "3695": "voj",
  "3696": " vě",
  "3697": " bem",
  "3698": "ск",
  "3699": " compl",
  "3700": "mm",
  "3701": "prav",
  "3702": " fer",
  "3703": " hac",
  "3704": " sat",
  "3705": "тся",
  "3706": " Ка",
  "3707": " jin",
  "3708": " zad",
  "3709": "jor",
  "3710": " Eu",
  "3711": " sy",
  "3712": "ener",
  "3713": "jak",
  "3714": "rib",
  "3715": " gdy",
  "3716": "zet",
  "3717": "vin",
  "3718": " ők",
  "3719": "фе",
  "3720": "ight",
  "3721": "öd",
  "3722": " mycket",
  "3723": "ază",
  "3724": " ø",
  "3725": "ple",
  "3726": "тра",
  "3727": " fir",
  "3728": "чески",
  "3729": " lug",
  "3730": "nan",
  "3731": "éri",
  "3732": "etta",
  "3733": " zar",
  "3734": "бли",
  "3735": " ээ",
  "3736": " jär",
  "3737": " pare",
  "3738": " Lu",
  "3739": "ká",
  "3740": "eden",
  "3741": " bor",
  "3742": " был",
  "3743": " eles",
  "3744": "ύτε",
  "3745": "дь",
  "3746": " ħa",
  "3747": " dav",
  "3748": " dacă",
  "3749": " Au",
  "3750": " natur",
  "3751": "lt",
  "3752": " Ac",
  "3753": " molto",
  "3754": " Br",
  "3755": " glob",
  "3756": " stand",
  "3757": "ετε",
  "3758": "τσι",
  "3759": " απ",
  "3760": " kw",
  "3761": "kej",
  "3762": " bal",
  "3763": "urile",
  "3764": "nis",
  "3765": " kak",
  "3766": " mad",
  "3767": " nak",
  "3768": " viet",
  "3769": " mă",
  "3770": " lang",
  "3771": "iesz",
  "3772": " nis",
  "3773": "óó",
  "3774": " gad",
  "3775": " daudz",
  "3776": " pros",
  "3777": " toho",
  "3778": "του",
  "3779": " zg",
  "3780": " oper",
  "3781": " olen",
  "3782": ",-",
  "3783": "lav",
  "3784": " zat",
  "3785": " põ",
  "3786": "ъм",
  "3787": " ľ",
  "3788": "ħseb",
  "3789": "šen",
  "3790": "ких",
  "3791": " στα",
  "3792": " best",
  "3793": " fant",
  "3794": " tempo",
  "3795": "ġi",
  "3796": " Мо",
  "3797": " hor",
  "3798": " était",
  "3799": " timp",
  "3800": "eder",
  "3801": "ål",
  "3802": " stan",
  "3803": " andere",
  "3804": " tamb",
  "3805": " zw",
  "3806": " meta",
  "3807": " nije",
  "3808": "ség",
  "3809": "kä",
  "3810": "νό",
  "3811": "доб",
  "3812": "съ",
  "3813": " È",
  "3814": "ды",
  "3815": "šie",
  "3816": " Але",
  "3817": " myös",
  "3818": " προσ",
  "3819": " ord",
  "3820": " skup",
  "3821": "air",
  "3822": "bién",
  "3823": " след",
  "3824": "ogu",
  "3825": " pret",
  "3826": " acest",
  "3827": " той",
  "3828": "čo",
  "3829": " Med",
  "3830": "urn",
  "3831": " Ni",
  "3832": "ence",
  "3833": "ster",
  "3834": " kienet",
  "3835": "laus",
  "3836": " jsme",
  "3837": " mano",
  "3838": "kan",
  "3839": "kem",
  "3840": " Á",
  "3841": " hum",
  "3842": " olla",
  "3843": "ίο",
  "3844": "ной",
  "3845": "ком",
  "3846": " viņi",
  "3847": " Gr",
  "3848": " kü",
  "3849": " dien",
  "3850": " осно",
  "3851": " também",
  "3852": " δύ",
  "3853": " vše",
  "3854": "вро",
  "3855": " csak",
  "3856": "sob",
  "3857": " ļoti",
  "3858": " Her",
  "3859": " gå",
  "3860": "тов",
  "3861": "úú",
  "3862": " Za",
  "3863": " desc",
  "3864": "amy",
  "3865": "rob",
  "3866": " där",
  "3867": "niej",
  "3868": " Hij",
  "3869": " дуже",
  "3870": "ender",
  "3871": "aje",
  "3872": " tij",
  "3873": " време",
  "3874": "elis",
  "3875": " soci",
  "3876": " sj",
  "3877": " който",
  "3878": "ké",
  "3879": " Mor",
  "3880": " știi",
  "3881": " haar",
  "3882": "col",
  "3883": " apr",
  "3884": "ondol",
  "3885": "konom",
  "3886": "бира",
  "3887": "ningen",
  "3888": "στη",
  "3889": " ans",
  "3890": "ulla",
  "3891": "roj",
  "3892": " μπορεί",
  "3893": "tea",
  "3894": " fakt",
  "3895": "hor",
  "3896": "azzjoni",
  "3897": "ými",
  "3898": " waren",
  "3899": "ró",
  "3900": " primer",
  "3901": " gali",
  "3902": " energ",
  "3903": "μή",
  "3904": " есть",
  "3905": "раз",
  "3906": " sõ",
  "3907": " hur",
  "3908": "īs",
  "3909": "rag",
  "3910": "üüd",
  "3911": " ses",
  "3912": " можете",
  "3913": "ęs",
  "3914": " Tā",
  "3915": "μένο",
  "3916": " ly",
  "3917": "stav",
  "3918": " sest",
  "3919": " vál",
  "3920": " Ob",
  "3921": "usti",
  "3922": "ycz",
  "3923": "αααα",
  "3924": " off",
  "3925": " loro",
  "3926": " πρό",
  "3927": "anud",
  "3928": "iera",
  "3929": " proto",
  "3930": "ham",
  "3931": "ley",
  "3932": " prá",
  "3933": " about",
  "3934": " questi",
  "3935": "ekl",
  "3936": " vam",
  "3937": "pport",
  "3938": "νή",
  "3939": " ber",
  "3940": " apie",
  "3941": " moh",
  "3942": "ņem",
  "3943": "мя",
  "3944": " няко",
  "3945": " term",
  "3946": " пі",
  "3947": " cal",
  "3948": " signi",
  "3949": "pan",
  "3950": "вся",
  "3951": "нима",
  "3952": " было",
  "3953": "odi",
  "3954": "ného",
  "3955": " todo",
  "3956": "jel",
  "3957": " hä",
  "3958": "δια",
  "3959": "eng",
  "3960": "стро",
  "3961": "iß",
  "3962": "ώρα",
  "3963": " osob",
  "3964": "ást",
  "3965": "vy",
  "3966": " inim",
  "3967": " meie",
  "3968": "vas",
  "3969": "ħra",
  "3970": " Δεν",
  "3971": " також",
  "3972": " wszyst",
  "3973": " kle",
  "3974": " Maar",
  "3975": "ischen",
  "3976": "ück",
  "3977": " говори",
  "3978": "ail",
  "3979": "cije",
  "3980": "ката",
  "3981": "isesti",
  "3982": "ød",
  "3983": "atie",
  "3984": " olyan",
  "3985": "ρία",
  "3986": "šanas",
  "3987": "кт",
  "3988": " verd",
  "3989": "bes",
  "3990": "ött",
  "3991": " fal",
  "3992": " ça",
  "3993": " famil",
  "3994": " poved",
  "3995": " Sim",
  "3996": " га",
  "3997": "udi",
  "3998": "γκ",
  "3999": " Bar",
  "4000": "iksi",
  "4001": "oug",
  "4002": "пол",
  "4003": " Col",
  "4004": " który",
  "4005": " lõ",
  "4006": "otre",
  "4007": " pode",
  "4008": "ára",
  "4009": " Bu",
  "4010": " Jis",
  "4011": " koje",
  "4012": " faire",
  "4013": "гля",
  "4014": "вання",
  "4015": "ced",
  "4016": " grand",
  "4017": "hoz",
  "4018": "жли",
  "4019": " oč",
  "4020": " Was",
  "4021": "oon",
  "4022": "ört",
  "4023": " eso",
  "4024": " conf",
  "4025": " Ви",
  "4026": " pove",
  "4027": "ario",
  "4028": " nagu",
  "4029": " cilvē",
  "4030": " hj",
  "4031": "lic",
  "4032": "чі",
  "4033": " ці",
  "4034": "inden",
  "4035": "jd",
  "4036": " sh",
  "4037": " igen",
  "4038": "τω",
  "4039": "щото",
  "4040": " tech",
  "4041": " eh",
  "4042": " Pero",
  "4043": " tav",
  "4044": " hvor",
  "4045": "gg",
  "4046": " také",
  "4047": " abs",
  "4048": " которые",
  "4049": "žu",
  "4050": "zę",
  "4051": "лся",
  "4052": " kop",
  "4053": " können",
  "4054": " miss",
  "4055": "шу",
  "4056": "jekt",
  "4057": " παρα",
  "4058": " було",
  "4059": "itos",
  "4060": "ále",
  "4061": "abe",
  "4062": " пу",
  "4063": "ré",
  "4064": "dzi",
  "4065": " καθ",
  "4066": " други",
  "4067": " dak",
  "4068": " nur",
  "4069": " Lo",
  "4070": " ye",
  "4071": " jien",
  "4072": " ř",
  "4073": "ady",
  "4074": " prim",
  "4075": "iske",
  "4076": "egu",
  "4077": "рів",
  "4078": " než",
  "4079": " pier",
  "4080": " vair",
  "4081": "έν",
  "4082": " Он",
  "4083": "ieni",
  "4084": " rest",
  "4085": "dom",
  "4086": " чо",
  "4087": "ști",
  "4088": "jiet",
  "4089": " ang",
  "4090": "змо",
  "4091": " Aber",
  "4092": " когато",
  "4093": "of",
  "4094": "kat",
  "4095": " або",
  "4096": "dje",
  "4097": " él",
  "4098": "ên",
  "4099": "дей",
  "4100": " mů",
  "4101": " пе",
  "4102": " preto",
  "4103": " mno",
  "4104": "bie",
  "4105": "žete",
  "4106": " έχει",
  "4107": "kti",
  "4108": "kså",
  "4109": "stä",
  "4110": " compr",
  "4111": "кри",
  "4112": "act",
  "4113": " ref",
  "4114": " був",
  "4115": " habe",
  "4116": " Він",
  "4117": " wurde",
  "4118": " myslím",
  "4119": "ares",
  "4120": " också",
  "4121": "aties",
  "4122": " byl",
  "4123": " pit",
  "4124": " delle",
  "4125": "ube",
  "4126": "otta",
  "4127": " ple",
  "4128": " word",
  "4129": " вам",
  "4130": " toim",
  "4131": "ția",
  "4132": " mūsu",
  "4133": "uno",
  "4134": " foarte",
  "4135": " Θ",
  "4136": " bare",
  "4137": " знаете",
  "4138": " ру",
  "4139": " são",
  "4140": " svar",
  "4141": "ford",
  "4142": "yw",
  "4143": "æl",
  "4144": "ody",
  "4145": " être",
  "4146": "øre",
  "4147": "ures",
  "4148": "jų",
  "4149": " bio",
  "4150": " τε",
  "4151": " spo",
  "4152": " rá",
  "4153": "cas",
  "4154": " denne",
  "4155": " weet",
  "4156": "dat",
  "4157": "tes",
  "4158": "usa",
  "4159": " înt",
  "4160": "ούν",
  "4161": " mere",
  "4162": " muut",
  "4163": "arg",
  "4164": " ευ",
  "4165": " now",
  "4166": " labai",
  "4167": "öv",
  "4168": "iner",
  "4169": "jev",
  "4170": " einem",
  "4171": "ībā",
  "4172": " vă",
  "4173": " pel",
  "4174": "gra",
  "4175": "roz",
  "4176": " rów",
  "4177": " twe",
  "4178": "čas",
  "4179": " фи",
  "4180": " zaj",
  "4181": "liga",
  "4182": "дите",
  "4183": " ham",
  "4184": "maz",
  "4185": "nolog",
  "4186": "ivel",
  "4187": "oko",
  "4188": "πάρχ",
  "4189": " bin",
  "4190": " Gre",
  "4191": " prac",
  "4192": "ovali",
  "4193": "urg",
  "4194": " Sh",
  "4195": "chter",
  "4196": "ním",
  "4197": "stu",
  "4198": "ров",
  "4199": " Во",
  "4200": " dobro",
  "4201": " onder",
  "4202": " organiz",
  "4203": "zna",
  "4204": " Quindi",
  "4205": "sit",
  "4206": " vse",
  "4207": "ace",
  "4208": " syn",
  "4209": " szám",
  "4210": " tej",
  "4211": " casa",
  "4212": "oved",
  "4213": " minden",
  "4214": "ay",
  "4215": "atu",
  "4216": " rob",
  "4217": " deux",
  "4218": "rom",
  "4219": " sap",
  "4220": "ój",
  "4221": "бі",
  "4222": " pus",
  "4223": " would",
  "4224": "сті",
  "4225": " algo",
  "4226": "lap",
  "4227": " før",
  "4228": " ges",
  "4229": " dette",
  "4230": "ppen",
  "4231": "iausi",
  "4232": " cri",
  "4233": "riv",
  "4234": " този",
  "4235": " їх",
  "4236": " vaik",
  "4237": " cela",
  "4238": "pla",
  "4239": " cred",
  "4240": "ху",
  "4241": "essä",
  "4242": "intre",
  "4243": " onze",
  "4244": "osto",
  "4245": " fig",
  "4246": " Nous",
  "4247": "γά",
  "4248": " думаю",
  "4249": "nas",
  "4250": " were",
  "4251": "ică",
  "4252": "ssä",
  "4253": " Ό",
  "4254": "idi",
  "4255": "lura",
  "4256": "σουν",
  "4257": " drug",
  "4258": "ree",
  "4259": " οπο",
  "4260": "том",
  "4261": "εται",
  "4262": " stato",
  "4263": " gondol",
  "4264": "cji",
  "4265": " two",
  "4266": "ші",
  "4267": " sto",
  "4268": " roku",
  "4269": "din",
  "4270": "rer",
  "4271": "ivät",
  "4272": "atta",
  "4273": "pis",
  "4274": " Fl",
  "4275": " име",
  "4276": " μπορού",
  "4277": " deres",
  "4278": " dell",
  "4279": " kunnen",
  "4280": "igi",
  "4281": "μαι",
  "4282": "ällä",
  "4283": " njih",
  "4284": "дела",
  "4285": " Go",
  "4286": "oria",
  "4287": " fut",
  "4288": "abar",
  "4289": " visi",
  "4290": "ъъ",
  "4291": "ota",
  "4292": "țin",
  "4293": " Di",
  "4294": " vill",
  "4295": " tagħhom",
  "4296": "ļu",
  "4297": " ftit",
  "4298": " Mutta",
  "4299": "ności",
  "4300": "ijos",
  "4301": " pesso",
  "4302": "īv",
  "4303": " lát",
  "4304": " diese",
  "4305": "öl",
  "4306": "ží",
  "4307": "стве",
  "4308": " odp",
  "4309": " pole",
  "4310": "φα",
  "4311": "enia",
  "4312": " Ein",
  "4313": " hänen",
  "4314": "akse",
  "4315": "vän",
  "4316": " áll",
  "4317": "ême",
  "4318": "enas",
  "4319": "bin",
  "4320": " Os",
  "4321": " think",
  "4322": " nod",
  "4323": "ary",
  "4324": "sel",
  "4325": "ions",
  "4326": " dėl",
  "4327": "bat",
  "4328": "cze",
  "4329": " dva",
  "4330": " suur",
  "4331": " oss",
  "4332": " prv",
  "4333": " which",
  "4334": " realmente",
  "4335": "nú",
  "4336": "buie",
  "4337": " exper",
  "4338": " despre",
  "4339": "ξη",
  "4340": " kit",
  "4341": "oit",
  "4342": "ws",
  "4343": "ăt",
  "4344": "λό",
  "4345": " mūsų",
  "4346": " Taigi",
  "4347": " lim",
  "4348": " san",
  "4349": " treb",
  "4350": "тер",
  "4351": "ric",
  "4352": " Ма",
  "4353": "hel",
  "4354": "ība",
  "4355": " bý",
  "4356": " Als",
  "4357": " esto",
  "4358": "pas",
  "4359": "vait",
  "4360": " gew",
  "4361": "astă",
  "4362": " Ω",
  "4363": " uv",
  "4364": " vám",
  "4365": " tiegħi",
  "4366": "ron",
  "4367": " иска",
  "4368": "áb",
  "4369": " их",
  "4370": "gram",
  "4371": " naud",
  "4372": " speci",
  "4373": " zav",
  "4374": " tren",
  "4375": "тель",
  "4376": "iser",
  "4377": " minut",
  "4378": "κι",
  "4379": " einer",
  "4380": " kõik",
  "4381": " ци",
  "4382": " daž",
  "4383": " съм",
  "4384": " him",
  "4385": " memb",
  "4386": "зы",
  "4387": "cin",
  "4388": "esen",
  "4389": "nega",
  "4390": "oten",
  "4391": " cosa",
  "4392": "δώ",
  "4393": " κατά",
  "4394": "kkor",
  "4395": " lehet",
  "4396": " their",
  "4397": "itor",
  "4398": " havde",
  "4399": " pir",
  "4400": " αυ",
  "4401": "стра",
  "4402": " bine",
  "4403": " Ke",
  "4404": " Som",
  "4405": " sano",
  "4406": "lia",
  "4407": " time",
  "4408": "esc",
  "4409": " Tom",
  "4410": " käyt",
  "4411": "гла",
  "4412": " jau",
  "4413": " vás",
  "4414": "dar",
  "4415": " bene",
  "4416": "fs",
  "4417": "κολ",
  "4418": " väga",
  "4419": "hem",
  "4420": " nego",
  "4421": " them",
  "4422": " tule",
  "4423": "zik",
  "4424": "eter",
  "4425": "zin",
  "4426": " chc",
  "4427": " palju",
  "4428": "nosť",
  "4429": "aba",
  "4430": "ird",
  "4431": "nad",
  "4432": "cej",
  "4433": " пове",
  "4434": "egi",
  "4435": " ω",
  "4436": "som",
  "4437": " ką",
  "4438": " meer",
  "4439": " ден",
  "4440": "υσ",
  "4441": "ské",
  "4442": " сме",
  "4443": "rok",
  "4444": "ίνει",
  "4445": " uno",
  "4446": " wel",
  "4447": " senti",
  "4448": "qa",
  "4449": " помо",
  "4450": " jotka",
  "4451": "īm",
  "4452": "ool",
  "4453": " ljudi",
  "4454": " ér",
  "4455": " lub",
  "4456": " υπο",
  "4457": " much",
  "4458": "teri",
  "4459": " aug",
  "4460": " ces",
  "4461": "ople",
  "4462": "tam",
  "4463": "line",
  "4464": " bei",
  "4465": " geen",
  "4466": "дат",
  "4467": "undo",
  "4468": " naz",
  "4469": "ючи",
  "4470": " üks",
  "4471": " ж",
  "4472": "tere",
  "4473": " ри",
  "4474": "erna",
  "4475": " sid",
  "4476": " πρέπει",
  "4477": "шен",
  "4478": " эти",
  "4479": "ring",
  "4480": "стоя",
  "4481": " koll",
  "4482": " possi",
  "4483": " przez",
  "4484": " naše",
  "4485": "isin",
  "4486": " mån",
  "4487": " vlast",
  "4488": " amb",
  "4489": " отно",
  "4490": "fik",
  "4491": " í",
  "4492": " még",
  "4493": "зможно",
  "4494": "irt",
  "4495": "сет",
  "4496": " stru",
  "4497": " tipo",
  "4498": " esper",
  "4499": " μό",
  "4500": " zou",
  "4501": " сте",
  "4502": " Той",
  "4503": " tit",
  "4504": " πρα",
  "4505": " тре",
  "4506": " Mislim",
  "4507": "lé",
  "4508": "ök",
  "4509": "ittä",
  "4510": "ají",
  "4511": " там",
  "4512": " zal",
  "4513": "imal",
  "4514": " espe",
  "4515": " iesp",
  "4516": "ιδ",
  "4517": "зе",
  "4518": "pak",
  "4519": "avez",
  "4520": " defin",
  "4521": "app",
  "4522": " dog",
  "4523": " Pe",
  "4524": "owie",
  "4525": " Mon",
  "4526": " Kas",
  "4527": " jel",
  "4528": " към",
  "4529": "лно",
  "4530": " од",
  "4531": " hvad",
  "4532": "gov",
  "4533": "isz",
  "4534": "owe",
  "4535": " люди",
  "4536": "ствен",
  "4537": " ment",
  "4538": " precis",
  "4539": "ño",
  "4540": " savu",
  "4541": " бъде",
  "4542": " Sam",
  "4543": " тези",
  "4544": " selv",
  "4545": "com",
  "4546": " may",
  "4547": "arna",
  "4548": " úgy",
  "4549": "ujú",
  "4550": "ким",
  "4551": "anden",
  "4552": " Huwa",
  "4553": " nagyon",
  "4554": "æt",
  "4555": " Kui",
  "4556": " tista",
  "4557": " Pol",
  "4558": " Europe",
  "4559": " вър",
  "4560": " также",
  "4561": "tag",
  "4562": " muy",
  "4563": "нг",
  "4564": "isch",
  "4565": "рата",
  "4566": " some",
  "4567": "vod",
  "4568": "ibt",
  "4569": "pus",
  "4570": " сло",
  "4571": " Pod",
  "4572": "cional",
  "4573": "λει",
  "4574": " če",
  "4575": "rast",
  "4576": "чень",
  "4577": " red",
  "4578": " redz",
  "4579": " ktorý",
  "4580": " got",
  "4581": " mitä",
  "4582": "ms",
  "4583": "pă",
  "4584": "ijas",
  "4585": " Então",
  "4586": " comun",
  "4587": "onna",
  "4588": " ihr",
  "4589": "прав",
  "4590": "мент",
  "4591": "ală",
  "4592": "jeb",
  "4593": " ils",
  "4594": " який",
  "4595": " Egy",
  "4596": " tiegħek",
  "4597": " meu",
  "4598": "tev",
  "4599": " Des",
  "4600": "μπ",
  "4601": " viel",
  "4602": " cost",
  "4603": " równie",
  "4604": "rac",
  "4605": "ків",
  "4606": " viņu",
  "4607": " kurie",
  "4608": "lič",
  "4609": " Mu",
  "4610": " elő",
  "4611": " when",
  "4612": " пробле",
  "4613": "стви",
  "4614": " teraz",
  "4615": " Ol",
  "4616": "лы",
  "4617": "lab",
  "4618": "čių",
  "4619": "press",
  "4620": " fran",
  "4621": " Щ",
  "4622": " klas",
  "4623": "нието",
  "4624": " kons",
  "4625": " aceste",
  "4626": " result",
  "4627": " kri",
  "4628": " sok",
  "4629": " dintre",
  "4630": "ęp",
  "4631": " který",
  "4632": "ψη",
  "4633": " kde",
  "4634": " ain",
  "4635": " zag",
  "4636": "бно",
  "4637": "lige",
  "4638": " nei",
  "4639": " noch",
  "4640": " popul",
  "4641": " Li",
  "4642": "пита",
  "4643": " Jed",
  "4644": " très",
  "4645": " годи",
  "4646": " dest",
  "4647": "rin",
  "4648": " want",
  "4649": "mun",
  "4650": "avat",
  "4651": " līdz",
  "4652": " ember",
  "4653": "hux",
  "4654": " hacer",
  "4655": " propri",
  "4656": "qui",
  "4657": " Om",
  "4658": " Бо",
  "4659": " ast",
  "4660": " mislim",
  "4661": "has",
  "4662": "rea",
  "4663": " lok",
  "4664": " Pot",
  "4665": " Los",
  "4666": " Este",
  "4667": " δε",
  "4668": " difer",
  "4669": " autom",
  "4670": "ėt",
  "4671": " cir",
  "4672": " noget",
  "4673": " ekonom",
  "4674": "adz",
  "4675": "yy",
  "4676": "ciju",
  "4677": " czas",
  "4678": " prot",
  "4679": " momento",
  "4680": "лан",
  "4681": " ră",
  "4682": " τέ",
  "4683": "рите",
  "4684": "itte",
  "4685": " каза",
  "4686": " vär",
  "4687": "бити",
  "4688": "ones",
  "4689": " Val",
  "4690": "ieren",
  "4691": "ják",
  "4692": "ktor",
  "4693": " doen",
  "4694": " если",
  "4695": " lucru",
  "4696": "άρ",
  "4697": "rač",
  "4698": "ół",
  "4699": " jas",
  "4700": "ільки",
  "4701": "xi",
  "4702": "poi",
  "4703": " буду",
  "4704": " ако",
  "4705": " transp",
  "4706": "ції",
  "4707": "atur",
  "4708": " дей",
  "4709": " doar",
  "4710": " bardzo",
  "4711": " perché",
  "4712": "χα",
  "4713": "aux",
  "4714": " fot",
  "4715": "ście",
  "4716": " zur",
  "4717": " мене",
  "4718": " potreb",
  "4719": " zich",
  "4720": "igh",
  "4721": " pró",
  "4722": " York",
  "4723": "iog",
  "4724": " dus",
  "4725": " liet",
  "4726": " всички",
  "4727": " nen",
  "4728": " finns",
  "4729": " jeden",
  "4730": " mich",
  "4731": " amikor",
  "4732": "тно",
  "4733": " Така",
  "4734": " posto",
  "4735": " również",
  "4736": "pend",
  "4737": " cuando",
  "4738": " tir",
  "4739": "gin",
  "4740": " Ger",
  "4741": "бра",
  "4742": "jes",
  "4743": " stad",
  "4744": " sik",
  "4745": "rzy",
  "4746": " há",
  "4747": " égal",
  "4748": " pes",
  "4749": " serv",
  "4750": "uz",
  "4751": "used",
  "4752": " Kun",
  "4753": " între",
  "4754": "вто",
  "4755": "ная",
  "4756": "ować",
  "4757": "ward",
  "4758": " lis",
  "4759": " lihts",
  "4760": "δή",
  "4761": " ami",
  "4762": " tän",
  "4763": " hely",
  "4764": "ador",
  "4765": "tais",
  "4766": " ons",
  "4767": " она",
  "4768": "lasti",
  "4769": " quer",
  "4770": " fazer",
  "4771": "хме",
  "4772": "idades",
  "4773": " hvis",
  "4774": " într",
  "4775": " Taip",
  "4776": " inten",
  "4777": "det",
  "4778": "σία",
  "4779": "aria",
  "4780": " pirm",
  "4781": " вона",
  "4782": "mos",
  "4783": " îm",
  "4784": " Pok",
  "4785": "ξει",
  "4786": "ních",
  "4787": " ble",
  "4788": " ī",
  "4789": " работа",
  "4790": "кре",
  "4791": " past",
  "4792": "cause",
  "4793": " Λ",
  "4794": "ято",
  "4795": "jali",
  "4796": " Don",
  "4797": " she",
  "4798": "uer",
  "4799": "ænd",
  "4800": "тите",
  "4801": "bbli",
  "4802": " jon",
  "4803": " τό",
  "4804": "onder",
  "4805": " vá",
  "4806": " câ",
  "4807": " през",
  "4808": " notre",
  "4809": "ait",
  "4810": "ρου",
  "4811": "дер",
  "4812": "robi",
  "4813": " investi",
  "4814": "kim",
  "4815": "вам",
  "4816": "δη",
  "4817": " ċ",
  "4818": "ées",
  "4819": "ээээ",
  "4820": " actu",
  "4821": " reik",
  "4822": " hanno",
  "4823": "abel",
  "4824": "idos",
  "4825": "quer",
  "4826": " väh",
  "4827": " обра",
  "4828": " prote",
  "4829": " également",
  "4830": "πη",
  "4831": " eng",
  "4832": " göra",
  "4833": " Viņš",
  "4834": "нен",
  "4835": " än",
  "4836": " protože",
  "4837": " mik",
  "4838": "ily",
  "4839": "estä",
  "4840": " Mus",
  "4841": " priv",
  "4842": "ují",
  "4843": "zel",
  "4844": " prop",
  "4845": "βα",
  "4846": "ätkö",
  "4847": " mensen",
  "4848": "dem",
  "4849": "νομ",
  "4850": "ames",
  "4851": " zosta",
  "4852": "EEEEEEEE",
  "4853": " durante",
  "4854": "ao",
  "4855": " вико",
  "4856": " liber",
  "4857": " domāju",
  "4858": " Як",
  "4859": "ges",
  "4860": " αυτή",
  "4861": "ása",
  "4862": " ξέ",
  "4863": " Rob",
  "4864": " рас",
  "4865": " меня",
  "4866": "пі",
  "4867": "nit",
  "4868": "raj",
  "4869": "рова",
  "4870": " bro",
  "4871": " oprav",
  "4872": " До",
  "4873": " Tam",
  "4874": " ela",
  "4875": " kaj",
  "4876": " wordt",
  "4877": "vr",
  "4878": " tě",
  "4879": " boli",
  "4880": " eg",
  "4881": "łu",
  "4882": " її",
  "4883": " очень",
  "4884": "vari",
  "4885": " pav",
  "4886": " Ve",
  "4887": " vaj",
  "4888": " avons",
  "4889": "etzt",
  "4890": "idas",
  "4891": " ты",
  "4892": "pec",
  "4893": " bon",
  "4894": " jagħ",
  "4895": " pretože",
  "4896": " един",
  "4897": "ίε",
  "4898": " рі",
  "4899": "imento",
  "4900": "mă",
  "4901": "tik",
  "4902": "olla",
  "4903": " Kat",
  "4904": " kre",
  "4905": " darb",
  "4906": "cat",
  "4907": " Οι",
  "4908": " been",
  "4909": "łe",
  "4910": " Você",
  "4911": " több",
  "4912": " Про",
  "4913": "anta",
  "4914": "fatt",
  "4915": " být",
  "4916": "koz",
  "4917": "ωωωω",
  "4918": " Nä",
  "4919": " cen",
  "4920": "fica",
  "4921": " тази",
  "4922": "uses",
  "4923": " ziniet",
  "4924": "anza",
  "4925": "aient",
  "4926": "aren",
  "4927": "elik",
  "4928": " forts",
  "4929": " Αυτό",
  "4930": " nás",
  "4931": " pää",
  "4932": " akkor",
  "4933": "što",
  "4934": " sabe",
  "4935": " pär",
  "4936": " koska",
  "4937": "ника",
  "4938": " mehr",
  "4939": " него",
  "4940": "гле",
  "4941": "ajte",
  "4942": " rem",
  "4943": " якщо",
  "4944": " strateg",
  "4945": "eksi",
  "4946": " lik",
  "4947": "voir",
  "4948": " prima",
  "4949": "fon",
  "4950": " būti",
  "4951": " even",
  "4952": " život",
  "4953": " maž",
  "4954": " people",
  "4955": "τρο",
  "4956": " Reg",
  "4957": " għa",
  "4958": "öm",
  "4959": " Chr",
  "4960": " πραγμα",
  "4961": " Kai",
  "4962": " tú",
  "4963": "aste",
  "4964": " прои",
  "4965": "kay",
  "4966": " kod",
  "4967": " lag",
  "4968": " tega",
  "4969": " nekaj",
  "4970": " Jak",
  "4971": " dzie",
  "4972": " hekk",
  "4973": " Ten",
  "4974": " cit",
  "4975": "ră",
  "4976": "ēju",
  "4977": " Va",
  "4978": "šim",
  "4979": " cur",
  "4980": " who",
  "4981": "āl",
  "4982": " podob",
  "4983": " Singapur",
  "4984": " Singapore",
  "4985": " sli",
  "4986": " consider",
  "4987": "ład",
  "4988": " cui",
  "4989": " pis",
  "4990": " amer",
  "4991": " essa",
  "4992": " koja",
  "4993": " werd",
  "4994": "кой",
  "4995": " mä",
  "4996": " Ра",
  "4997": " Europa",
  "4998": " sud",
  "4999": "λώ",
  "5000": "σαν",
  "5001": " гру",
  "5002": " więc",
  "5003": "kie",
  "5004": "stvo",
  "5005": " versch",
  "5006": "itan",
  "5007": " kienu",
  "5008": "ними",
  "5009": " която",
  "5010": "mest",
  "5011": "med",
  "5012": " malo",
  "5013": " υπάρχ",
  "5014": " vraiment",
  "5015": "alen",
  "5016": " aux",
  "5017": "kow",
  "5018": " мне",
  "5019": " importante",
  "5020": "ικο",
  "5021": " dif",
  "5022": " сдела",
  "5023": "ya",
  "5024": "liv",
  "5025": " alc",
  "5026": " suo",
  "5027": " funk",
  "5028": " here",
  "5029": " detta",
  "5030": "rik",
  "5031": "σετε",
  "5032": "éc",
  "5033": "όν",
  "5034": "тели",
  "5035": " fav",
  "5036": "tige",
  "5037": " jen",
  "5038": " sek",
  "5039": " dim",
  "5040": " доста",
  "5041": "juč",
  "5042": " tiem",
  "5043": "σσ",
  "5044": " sent",
  "5045": " visu",
  "5046": " hv",
  "5047": " cl",
  "5048": "cord",
  "5049": " oleks",
  "5050": " már",
  "5051": "γή",
  "5052": "imme",
  "5053": " această",
  "5054": "ule",
  "5055": "υνα",
  "5056": " cele",
  "5057": " apro",
  "5058": " ¡",
  "5059": "esa",
  "5060": "ман",
  "5061": "гі",
  "5062": " disk",
  "5063": " όταν",
  "5064": " άν",
  "5065": " suc",
  "5066": " use",
  "5067": " žm",
  "5068": " jedn",
  "5069": " nella",
  "5070": "cil",
  "5071": " -",
  "5072": "καν",
  "5073": "elor",
  "5074": " exc",
  "5075": " svet",
  "5076": " simpl",
  "5077": "χή",
  "5078": " δύο",
  "5079": " vendar",
  "5080": "дов",
  "5081": " δη",
  "5082": " dzi",
  "5083": " donc",
  "5084": " kult",
  "5085": "nut",
  "5086": "áme",
  "5087": " им",
  "5088": " bħ",
  "5089": " над",
  "5090": "SA",
  "5091": "πί",
  "5092": "rim",
  "5093": " arm",
  "5094": " Как",
  "5095": " vairāk",
  "5096": " Ú",
  "5097": "ots",
  "5098": " φο",
  "5099": "dział",
  "5100": " kuul",
  "5101": " kanssa",
  "5102": "iert",
  "5103": "τρα",
  "5104": "minist",
  "5105": "oper",
  "5106": " ves",
  "5107": " modo",
  "5108": " tkun",
  "5109": " пока",
  "5110": "вор",
  "5111": "ном",
  "5112": "inge",
  "5113": " ann",
  "5114": " așa",
  "5115": " nau",
  "5116": " rezult",
  "5117": " būt",
  "5118": " lev",
  "5119": "issen",
  "5120": "apt",
  "5121": " više",
  "5122": "μι",
  "5123": " быть",
  "5124": "ók",
  "5125": " iżda",
  "5126": "że",
  "5127": "īja",
  "5128": " Αλλά",
  "5129": "lub",
  "5130": " ya",
  "5131": " hos",
  "5132": " них",
  "5133": "istas",
  "5134": "ót",
  "5135": "fol",
  "5136": " κο",
  "5137": " ľud",
  "5138": "ência",
  "5139": " добре",
  "5140": "uts",
  "5141": " Jah",
  "5142": " Ed",
  "5143": " suis",
  "5144": "čnosti",
  "5145": "чай",
  "5146": "uter",
  "5147": " byť",
  "5148": " Tämä",
  "5149": " veľmi",
  "5150": "ož",
  "5151": " Kan",
  "5152": " elle",
  "5153": " siitä",
  "5154": "циа",
  "5155": "auc",
  "5156": " toh",
  "5157": " déc",
  "5158": " sei",
  "5159": " ħaġa",
  "5160": " через",
  "5161": "ism",
  "5162": " ev",
  "5163": " ži",
  "5164": " kus",
  "5165": "bagħ",
  "5166": " vår",
  "5167": " nich",
  "5168": " econom",
  "5169": "ates",
  "5170": " doc",
  "5171": " gör",
  "5172": " tart",
  "5173": " ust",
  "5174": " vienkār",
  "5175": " amit",
  "5176": " будет",
  "5177": " también",
  "5178": "ror",
  "5179": "рта",
  "5180": "aa",
  "5181": "кого",
  "5182": " Tod",
  "5183": " Tur",
  "5184": " był",
  "5185": " jäl",
  "5186": " нам",
  "5187": " вели",
  "5188": "qs",
  "5189": "ög",
  "5190": " trebuie",
  "5191": " tin",
  "5192": " όπω",
  "5193": "ering",
  "5194": "рти",
  "5195": " pam",
  "5196": " στον",
  "5197": "rab",
  "5198": " šo",
  "5199": " tat",
  "5200": " gospod",
  "5201": "стина",
  "5202": " Ih",
  "5203": " Não",
  "5204": "φή",
  "5205": "ách",
  "5206": "жна",
  "5207": " Dak",
  "5208": " dre",
  "5209": " mogu",
  "5210": "άζ",
  "5211": " rod",
  "5212": " kollha",
  "5213": "šn",
  "5214": " vec",
  "5215": " každ",
  "5216": " dessa",
  "5217": "uró",
  "5218": "was",
  "5219": "elij",
  "5220": " bili",
  "5221": " sehr",
  "5222": "utat",
  "5223": "lej",
  "5224": " σύ",
  "5225": " Jos",
  "5226": " bit",
  "5227": "ři",
  "5228": "elles",
  "5229": "pol",
  "5230": " sna",
  "5231": "ised",
  "5232": " Vous",
  "5233": " μετα",
  "5234": " problema",
  "5235": " andra",
  "5236": " bun",
  "5237": "stand",
  "5238": " helt",
  "5239": " constru",
  "5240": " lihtsalt",
  "5241": " log",
  "5242": " frem",
  "5243": "plo",
  "5244": " hoe",
  "5245": " into",
  "5246": " Ü",
  "5247": " ακ",
  "5248": "kte",
  "5249": " uk",
  "5250": "jau",
  "5251": " Ce",
  "5252": " nyt",
  "5253": " πιο",
  "5254": " very",
  "5255": " цього",
  "5256": "ex",
  "5257": " soll",
  "5258": " going",
  "5259": " sempli",
  "5260": "ämän",
  "5261": " lep",
  "5262": " εδώ",
  "5263": " välja",
  "5264": "sin",
  "5265": "тен",
  "5266": " gam",
  "5267": " Зна",
  "5268": " prem",
  "5269": " szeret",
  "5270": "ést",
  "5271": "над",
  "5272": "umus",
  "5273": " går",
  "5274": " jog",
  "5275": " ді",
  "5276": " vys",
  "5277": "ară",
  "5278": "ños",
  "5279": "jam",
  "5280": "zni",
  "5281": "inė",
  "5282": " ing",
  "5283": " Deci",
  "5284": " peut",
  "5285": " Ph",
  "5286": "estu",
  "5287": " moet",
  "5288": "στα",
  "5289": " Or",
  "5290": " preg",
  "5291": " Мы",
  "5292": "obil",
  "5293": "țion",
  "5294": " запо",
  "5295": "ній",
  "5296": " My",
  "5297": " prez",
  "5298": " får",
  "5299": " осо",
  "5300": " poten",
  "5301": "ħed",
  "5302": " Се",
  "5303": " mok",
  "5304": "ivi",
  "5305": "pie",
  "5306": "iset",
  "5307": " täh",
  "5308": "зі",
  "5309": " siin",
  "5310": " один",
  "5311": "ную",
  "5312": "għid",
  "5313": " Mēs",
  "5314": " tikai",
  "5315": " Ш",
  "5316": "rau",
  "5317": "зда",
  "5318": "кто",
  "5319": " Είναι",
  "5320": "emi",
  "5321": "erea",
  "5322": " Kar",
  "5323": " στι",
  "5324": " вер",
  "5325": " Å",
  "5326": "äng",
  "5327": "ųjų",
  "5328": "mien",
  "5329": " moje",
  "5330": "тів",
  "5331": " arv",
  "5332": " unter",
  "5333": " due",
  "5334": " tel",
  "5335": " mani",
  "5336": "īgs",
  "5337": "лаго",
  "5338": " дела",
  "5339": " tanto",
  "5340": " otr",
  "5341": " wil",
  "5342": " interess",
  "5343": " ehm",
  "5344": "cker",
  "5345": "ds",
  "5346": "ful",
  "5347": " deb",
  "5348": "ungs",
  "5349": " σημα",
  "5350": "zza",
  "5351": "γρα",
  "5352": " μη",
  "5353": "aszt",
  "5354": "ossa",
  "5355": " fond",
  "5356": "pin",
  "5357": " mare",
  "5358": " måste",
  "5359": "τώ",
  "5360": " ги",
  "5361": " Char",
  "5362": "fü",
  "5363": "už",
  "5364": "ură",
  "5365": "atti",
  "5366": "jeme",
  "5367": " nagħ",
  "5368": " grund",
  "5369": " dô",
  "5370": " así",
  "5371": " disc",
  "5372": " компа",
  "5373": "ían",
  "5374": " hawn",
  "5375": " durch",
  "5376": " univers",
  "5377": " ry",
  "5378": " Ako",
  "5379": " Bro",
  "5380": " then",
  "5381": " weiß",
  "5382": "bagħad",
  "5383": " fă",
  "5384": " takže",
  "5385": " politi",
  "5386": " való",
  "5387": "oare",
  "5388": " estava",
  "5389": "rak",
  "5390": " Tu",
  "5391": "żi",
  "5392": "hmen",
  "5393": " interes",
  "5394": " ket",
  "5395": " mell",
  "5396": "ory",
  "5397": "rum",
  "5398": " minu",
  "5399": " ef",
  "5400": "fu",
  "5401": "kla",
  "5402": " ло",
  "5403": " regul",
  "5404": " its",
  "5405": "øl",
  "5406": "śl",
  "5407": "ème",
  "5408": " új",
  "5409": "inių",
  "5410": " powie",
  "5411": " rag",
  "5412": " хоро",
  "5413": " paljon",
  "5414": " tiesiog",
  "5415": "heit",
  "5416": " veliko",
  "5417": "ape",
  "5418": "hand",
  "5419": " alles",
  "5420": " людей",
  "5421": " Mad",
  "5422": " πρά",
  "5423": " všech",
  "5424": "mission",
  "5425": "adu",
  "5426": " Fil",
  "5427": " mun",
  "5428": " Mc",
  "5429": "aff",
  "5430": " rom",
  "5431": "atori",
  "5432": "λω",
  "5433": "oden",
  "5434": " Áno",
  "5435": " noast",
  "5436": "avi",
  "5437": " kart",
  "5438": "cias",
  "5439": " bör",
  "5440": " vri",
  "5441": "ání",
  "5442": "itud",
  "5443": "onte",
  "5444": "ében",
  "5445": " ren",
  "5446": " час",
  "5447": " Miss",
  "5448": " fram",
  "5449": "duc",
  "5450": " vak",
  "5451": "iente",
  "5452": " επίση",
  "5453": "dę",
  "5454": "дъл",
  "5455": " trab",
  "5456": "alu",
  "5457": "тив",
  "5458": " ří",
  "5459": "ture",
  "5460": " Tag",
  "5461": "гна",
  "5462": " prov",
  "5463": " encont",
  "5464": "óg",
  "5465": "elő",
  "5466": "lja",
  "5467": "inta",
  "5468": "ονται",
  "5469": " gibt",
  "5470": " sitä",
  "5471": " fre",
  "5472": "λύτε",
  "5473": " sis",
  "5474": " stvari",
  "5475": "åt",
  "5476": "ress",
  "5477": "pper",
  "5478": " Vai",
  "5479": " spus",
  "5480": " votre",
  "5481": " kaikki",
  "5482": "ню",
  "5483": "šanu",
  "5484": "šli",
  "5485": " lugar",
  "5486": " Cu",
  "5487": "вропе",
  "5488": " spor",
  "5489": "ână",
  "5490": " също",
  "5491": "dev",
  "5492": " ισ",
  "5493": " būtu",
  "5494": " così",
  "5495": " pense",
  "5496": " questa",
  "5497": "ison",
  "5498": "лага",
  "5499": " rze",
  "5500": " πό",
  "5501": "ange",
  "5502": "tima",
  "5503": " vert",
  "5504": "omis",
  "5505": " πάν",
  "5506": " cres",
  "5507": "ště",
  "5508": " ξε",
  "5509": "zien",
  "5510": " tyl",
  "5511": " upor",
  "5512": " indust",
  "5513": "oh",
  "5514": "nov",
  "5515": "wij",
  "5516": " были",
  "5517": " kunne",
  "5518": "лее",
  "5519": " гла",
  "5520": "wel",
  "5521": "цен",
  "5522": " át",
  "5523": "cijas",
  "5524": "нес",
  "5525": "ką",
  "5526": "rait",
  "5527": "рно",
  "5528": " neces",
  "5529": " ped",
  "5530": " dann",
  "5531": " mert",
  "5532": " vida",
  "5533": " situa",
  "5534": " sempre",
  "5535": " abbiamo",
  "5536": "сле",
  "5537": "nies",
  "5538": " być",
  "5539": " jego",
  "5540": " мені",
  "5541": "aw",
  "5542": " izm",
  "5543": " gel",
  "5544": "ņu",
  "5545": "cir",
  "5546": " Mal",
  "5547": " ί",
  "5548": "sid",
  "5549": "чат",
  "5550": " förs",
  "5551": " absol",
  "5552": " drugi",
  "5553": " proti",
  "5554": " Хо",
  "5555": " багато",
  "5556": "ča",
  "5557": " ever",
  "5558": " отри",
  "5559": "tenant",
  "5560": " hatte",
  "5561": " hy",
  "5562": " ihm",
  "5563": " pia",
  "5564": " всі",
  "5565": " Jien",
  "5566": "hos",
  "5567": "atte",
  "5568": " any",
  "5569": " mhux",
  "5570": "klich",
  "5571": " eigen",
  "5572": " Pu",
  "5573": " vod",
  "5574": " сві",
  "5575": " trava",
  "5576": "ują",
  "5577": "inst",
  "5578": " trabal",
  "5579": "das",
  "5580": " sia",
  "5581": "way",
  "5582": "лови",
  "5583": "ování",
  "5584": " last",
  "5585": " бути",
  "5586": "мента",
  "5587": "itatea",
  "5588": " persone",
  "5589": "opa",
  "5590": " Kon",
  "5591": "enter",
  "5592": "коно",
  "5593": " leur",
  "5594": " nech",
  "5595": "fri",
  "5596": " бя",
  "5597": " цен",
  "5598": " bħala",
  "5599": " savez",
  "5600": " really",
  "5601": "ix",
  "5602": " ál",
  "5603": "yje",
  "5604": "jich",
  "5605": "θηκε",
  "5606": " jei",
  "5607": " тех",
  "5608": " Komis",
  "5609": "ερ",
  "5610": "etr",
  "5611": " même",
  "5612": "otu",
  "5613": "жду",
  "5614": " лі",
  "5615": " Nad",
  "5616": " вклю",
  "5617": " konkur",
  "5618": "пла",
  "5619": "чение",
  "5620": "ír",
  "5621": "orit",
  "5622": " pessoas",
  "5623": "θή",
  "5624": "anz",
  "5625": "til",
  "5626": "umas",
  "5627": " merc",
  "5628": " stvar",
  "5629": " повече",
  "5630": "λου",
  "5631": "вав",
  "5632": " испо",
  "5633": "νά",
  "5634": "bet",
  "5635": " said",
  "5636": "ľa",
  "5637": "ným",
  "5638": "oku",
  "5639": " χα",
  "5640": " sü",
  "5641": "aron",
  "5642": "ço",
  "5643": " cul",
  "5644": "umiem",
  "5645": " chose",
  "5646": " bylo",
  "5647": "pid",
  "5648": " té",
  "5649": " biss",
  "5650": " σκ",
  "5651": " зо",
  "5652": " imma",
  "5653": " нещо",
  "5654": " avait",
  "5655": " предста",
  "5656": "erson",
  "5657": " stabil",
  "5658": "dal",
  "5659": "ative",
  "5660": " uč",
  "5661": " kesk",
  "5662": "цю",
  "5663": "üh",
  "5664": " ért",
  "5665": " cond",
  "5666": " denk",
  "5667": "lá",
  "5668": " kis",
  "5669": " swo",
  "5670": " bolo",
  "5671": " tead",
  "5672": " moeten",
  "5673": "ór",
  "5674": "ppe",
  "5675": " anti",
  "5676": "jut",
  "5677": " ее",
  "5678": "σσότε",
  "5679": " Geor",
  "5680": " είχε",
  "5681": " então",
  "5682": " περισσότε",
  "5683": "uli",
  "5684": " Las",
  "5685": " Nor",
  "5686": "gende",
  "5687": " spos",
  "5688": "wk",
  "5689": "fach",
  "5690": "vero",
  "5691": "nyt",
  "5692": " tou",
  "5693": " būtų",
  "5694": "ća",
  "5695": "umā",
  "5696": "ált",
  "5697": "inda",
  "5698": " hele",
  "5699": " Iz",
  "5700": " защото",
  "5701": " partner",
  "5702": "yllä",
  "5703": " dez",
  "5704": " nuo",
  "5705": " wür",
  "5706": " sigur",
  "5707": " Če",
  "5708": "icht",
  "5709": "писа",
  "5710": " jist",
  "5711": "ťa",
  "5712": "ρια",
  "5713": "лия",
  "5714": " töö",
  "5715": " asem",
  "5716": " echt",
  "5717": " exemp",
  "5718": "inud",
  "5719": "ravo",
  "5720": " gla",
  "5721": " vég",
  "5722": "ned",
  "5723": "amil",
  "5724": " może",
  "5725": " були",
  "5726": " these",
  "5727": "ďal",
  "5728": "ieważ",
  "5729": " base",
  "5730": " fare",
  "5731": " multe",
  "5732": "гли",
  "5733": " две",
  "5734": " poss",
  "5735": "rez",
  "5736": "ших",
  "5737": " Dav",
  "5738": " kör",
  "5739": " peu",
  "5740": "nika",
  "5741": " Iva",
  "5742": " run",
  "5743": " prime",
  "5744": " vienkārši",
  "5745": "ļa",
  "5746": " Ä",
  "5747": "aig",
  "5748": " lé",
  "5749": "ager",
  "5750": "erste",
  "5751": " había",
  "5752": "cos",
  "5753": " κάπο",
  "5754": "šte",
  "5755": "реди",
  "5756": " hot",
  "5757": "ступ",
  "5758": " dia",
  "5759": " fem",
  "5760": "govor",
  "5761": "zej",
  "5762": "нето",
  "5763": "icu",
  "5764": "oth",
  "5765": "keit",
  "5766": " tis",
  "5767": " San",
  "5768": "iems",
  "5769": " mam",
  "5770": "anten",
  "5771": " perm",
  "5772": " intern",
  "5773": "ugh",
  "5774": "mlu",
  "5775": "osten",
  "5776": " zien",
  "5777": "urd",
  "5778": "enza",
  "5779": "десет",
  "5780": " goed",
  "5781": " mand",
  "5782": " vier",
  "5783": " aktiv",
  "5784": " время",
  "5785": " vē",
  "5786": " ха",
  "5787": " iespēj",
  "5788": " κοι",
  "5789": " κάτι",
  "5790": "far",
  "5791": "від",
  "5792": "вата",
  "5793": " gaan",
  "5794": " tämä",
  "5795": "aki",
  "5796": " év",
  "5797": "plat",
  "5798": "tica",
  "5799": " tikr",
  "5800": " ασ",
  "5801": "était",
  "5802": " tutto",
  "5803": " invest",
  "5804": "row",
  "5805": "вропей",
  "5806": " tento",
  "5807": "th",
  "5808": "egy",
  "5809": "чина",
  "5810": " led",
  "5811": " pēc",
  "5812": " något",
  "5813": " usk",
  "5814": "ħab",
  "5815": "λευ",
  "5816": " ting",
  "5817": " toda",
  "5818": " έχουν",
  "5819": "μφ",
  "5820": " jį",
  "5821": " učin",
  "5822": " zelo",
  "5823": " потрі",
  "5824": " problém",
  "5825": " Ag",
  "5826": " Aust",
  "5827": " Έτσι",
  "5828": "umo",
  "5829": " krit",
  "5830": " hol",
  "5831": " This",
  "5832": " však",
  "5833": "alifor",
  "5834": " ütles",
  "5835": "āv",
  "5836": "ству",
  "5837": " tab",
  "5838": " Wenn",
  "5839": "мати",
  "5840": " чем",
  "5841": "ograf",
  "5842": "πή",
  "5843": " ceea",
  "5844": " mont",
  "5845": " întâ",
  "5846": " знаю",
  "5847": " Sk",
  "5848": " äh",
  "5849": " projekt",
  "5850": "вим",
  "5851": " demok",
  "5852": " other",
  "5853": " Myslím",
  "5854": "äll",
  "5855": " tru",
  "5856": " виде",
  "5857": " ukoll",
  "5858": "ational",
  "5859": "íz",
  "5860": "ént",
  "5861": "дом",
  "5862": "olat",
  "5863": "ittle",
  "5864": " Allura",
  "5865": " wirklich",
  "5866": "bolj",
  "5867": " otro",
  "5868": " tylko",
  "5869": "ξε",
  "5870": "kou",
  "5871": "pel",
  "5872": "inis",
  "5873": " oike",
  "5874": "aucoup",
  "5875": " place",
  "5876": "üs",
  "5877": "ун",
  "5878": "ħda",
  "5879": " zum",
  "5880": " jaun",
  "5881": "áte",
  "5882": "itti",
  "5883": " bos",
  "5884": "imos",
  "5885": "лкова",
  "5886": " rész",
  "5887": "icz",
  "5888": "skat",
  "5889": " termin",
  "5890": "țe",
  "5891": "ħna",
  "5892": " hay",
  "5893": " hall",
  "5894": "δι",
  "5895": "iais",
  "5896": " συν",
  "5897": "ówi",
  "5898": "anno",
  "5899": " этом",
  "5900": " ollut",
  "5901": "udo",
  "5902": "unto",
  "5903": "клад",
  "5904": "óż",
  "5905": "ęd",
  "5906": "ρίζ",
  "5907": "ināt",
  "5908": "sem",
  "5909": "нні",
  "5910": " Sc",
  "5911": " sad",
  "5912": " pur",
  "5913": "rå",
  "5914": "ползва",
  "5915": " Wo",
  "5916": "tö",
  "5917": " Din",
  "5918": " imm",
  "5919": " vyt",
  "5920": " мога",
  "5921": "log",
  "5922": " въз",
  "5923": " уве",
  "5924": "inder",
  "5925": " prad",
  "5926": " αρ",
  "5927": "enda",
  "5928": " acum",
  "5929": " свои",
  "5930": " obser",
  "5931": " naħseb",
  "5932": "ън",
  "5933": " dawn",
  "5934": " viss",
  "5935": "ležit",
  "5936": "ief",
  "5937": "ход",
  "5938": "ющи",
  "5939": "áj",
  "5940": " Mer",
  "5941": " usp",
  "5942": "denti",
  "5943": " aqui",
  "5944": " bych",
  "5945": " більше",
  "5946": "unud",
  "5947": "ún",
  "5948": "nar",
  "5949": "рес",
  "5950": " dů",
  "5951": " κό",
  "5952": " fos",
  "5953": " padar",
  "5954": "ίζω",
  "5955": " lí",
  "5956": "anju",
  "5957": " einfach",
  "5958": "ios",
  "5959": "rii",
  "5960": "owi",
  "5961": "iger",
  "5962": "ával",
  "5963": "ούμε",
  "5964": " lat",
  "5965": "ću",
  "5966": "inote",
  "5967": " materi",
  "5968": " Pal",
  "5969": " fie",
  "5970": " pic",
  "5971": "ciu",
  "5972": "tos",
  "5973": " når",
  "5974": " byla",
  "5975": " nast",
  "5976": " jų",
  "5977": " Tor",
  "5978": "heden",
  "5979": " poder",
  "5980": " because",
  "5981": " который",
  "5982": "āja",
  "5983": "ční",
  "5984": " important",
  "5985": "ekom",
  "5986": " Ser",
  "5987": "λί",
  "5988": " Χ",
  "5989": " För",
  "5990": " mj",
  "5991": "nici",
  "5992": "вания",
  "5993": " вла",
  "5994": " Lond",
  "5995": " wsp",
  "5996": "зь",
  "5997": " sens",
  "5998": " način",
  "5999": "ρυ",
  "6000": "ються",
  "6001": " estão",
  "6002": " potom",
  "6003": "đu",
  "6004": "zés",
  "6005": "лич",
  "6006": " hund",
  "6007": "üt",
  "6008": "ший",
  "6009": " gł",
  "6010": " спра",
  "6011": "iekš",
  "6012": " honom",
  "6013": "ationen",
  "6014": "нов",
  "6015": "ρετε",
  "6016": "omo",
  "6017": "zor",
  "6018": " blo",
  "6019": " rok",
  "6020": " още",
  "6021": " rela",
  "6022": " μεγά",
  "6023": "ēd",
  "6024": " rak",
  "6025": " διά",
  "6026": " μόνο",
  "6027": "ков",
  "6028": " Igen",
  "6029": " norm",
  "6030": "unca",
  "6031": " dor",
  "6032": " Mens",
  "6033": "ült",
  "6034": "ėtų",
  "6035": " Jā",
  "6036": " Dus",
  "6037": " jim",
  "6038": " пов",
  "6039": "ará",
  "6040": " sí",
  "6041": " jät",
  "6042": "ppo",
  "6043": "ття",
  "6044": " Gu",
  "6045": " наи",
  "6046": " clas",
  "6047": " zato",
  "6048": " tomto",
  "6049": " web",
  "6050": "aug",
  "6051": "olt",
  "6052": " liik",
  "6053": "wy",
  "6054": "ге",
  "6055": "ною",
  "6056": " rää",
  "6057": " χρό",
  "6058": " sina",
  "6059": " kontrol",
  "6060": "aram",
  "6061": " jkun",
  "6062": " gebru",
  "6063": " толкова",
  "6064": "ian",
  "6065": "amise",
  "6066": " două",
  "6067": " võib",
  "6068": "ικέ",
  "6069": " ét",
  "6070": " lor",
  "6071": " ingen",
  "6072": " nende",
  "6073": "ški",
  "6074": "amaan",
  "6075": " orig",
  "6076": " голо",
  "6077": " tutti",
  "6078": " может",
  "6079": "dag",
  "6080": " Θα",
  "6081": "kken",
  "6082": " poh",
  "6083": "ontos",
  "6084": "jší",
  "6085": "ikti",
  "6086": "мери",
  "6087": " tuo",
  "6088": " seus",
  "6089": " λί",
  "6090": " supp",
  "6091": "кс",
  "6092": "ilu",
  "6093": " vro",
  "6094": "wię",
  "6095": " Ev",
  "6096": " τόσο",
  "6097": " преди",
  "6098": " två",
  "6099": " zwe",
  "6100": " putea",
  "6101": " probab",
  "6102": "обре",
  "6103": " mõt",
  "6104": "ember",
  "6105": " gøre",
  "6106": " zdrav",
  "6107": "κόμα",
  "6108": " liel",
  "6109": " ostat",
  "6110": " toate",
  "6111": " zp",
  "6112": " hit",
  "6113": " tras",
  "6114": "bel",
  "6115": " milli",
  "6116": " beaucoup",
  "6117": "ются",
  "6118": "řed",
  "6119": "iskt",
  "6120": " noi",
  "6121": " περί",
  "6122": " jó",
  "6123": " pré",
  "6124": " Dies",
  "6125": " contra",
  "6126": " только",
  "6127": "fo",
  "6128": " long",
  "6129": " tijd",
  "6130": " divers",
  "6131": " tým",
  "6132": " χρη",
  "6133": " għax",
  "6134": " poate",
  "6135": "gio",
  "6136": "ovala",
  "6137": " apenas",
  "6138": " look",
  "6139": " kuris",
  "6140": " talál",
  "6141": "owy",
  "6142": "šta",
  "6143": "лити",
  "6144": " Για",
  "6145": " ско",
  "6146": " Mich",
  "6147": " lill",
  "6148": " wieħed",
  "6149": ",.",
  "6150": " ją",
  "6151": " lö",
  "6152": "unos",
  "6153": " moj",
  "6154": "ėra",
  "6155": " stop",
  "6156": "šķ",
  "6157": " rés",
  "6158": " praw",
  "6159": "set",
  "6160": "elet",
  "6161": " mia",
  "6162": " paz",
  "6163": " immer",
  "6164": "sl",
  "6165": " vin",
  "6166": " antes",
  "6167": " could",
  "6168": " συνέ",
  "6169": "imy",
  "6170": "orth",
  "6171": "ложе",
  "6172": " region",
  "6173": "ése",
  "6174": "alle",
  "6175": "iaus",
  "6176": "unci",
  "6177": "ържа",
  "6178": " mine",
  "6179": "udu",
  "6180": " sas",
  "6181": "ordan",
  "6182": " work",
  "6183": " kohta",
  "6184": " исполь",
  "6185": "part",
  "6186": "ások",
  "6187": "чите",
  "6188": " gewo",
  "6189": " trimest",
  "6190": " kän",
  "6191": "ными",
  "6192": " Sin",
  "6193": " proc",
  "6194": " financi",
  "6195": " Gra",
  "6196": " vom",
  "6197": " могу",
  "6198": " Β",
  "6199": "jad",
  "6200": "ksen",
  "6201": " twee",
  "6202": "łą",
  "6203": "kiem",
  "6204": "vern",
  "6205": " Jer",
  "6206": " jou",
  "6207": " zi",
  "6208": "oses",
  "6209": "ēram",
  "6210": " roh",
  "6211": " vig",
  "6212": " meine",
  "6213": "uf",
  "6214": "γε",
  "6215": "onu",
  "6216": " nj",
  "6217": "eken",
  "6218": "σιμο",
  "6219": " Tako",
  "6220": "utu",
  "6221": " Ну",
  "6222": " All",
  "6223": " αυτά",
  "6224": "ρει",
  "6225": "áva",
  "6226": " estamos",
  "6227": "ibil",
  "6228": " nici",
  "6229": "øj",
  "6230": "anu",
  "6231": "ριο",
  "6232": "ické",
  "6233": "igur",
  "6234": "mény",
  "6235": " Gal",
  "6236": " complet",
  "6237": "ėk",
  "6238": "ин",
  "6239": " dl",
  "6240": "utoč",
  "6241": " jus",
  "6242": " σχ",
  "6243": "skih",
  "6244": " σχε",
  "6245": "tions",
  "6246": "кан",
  "6247": " chiar",
  "6248": "бя",
  "6249": "daj",
  "6250": "pun",
  "6251": "εία",
  "6252": "erk",
  "6253": " Åh",
  "6254": " Mit",
  "6255": " aga",
  "6256": " cro",
  "6257": "ameni",
  "6258": " viac",
  "6259": " fordi",
  "6260": "nte",
  "6261": "son",
  "6262": "čne",
  "6263": " Finn",
  "6264": " vå",
  "6265": "преде",
  "6266": " sing",
  "6267": " больше",
  "6268": " how",
  "6269": " tagħha",
  "6270": "āka",
  "6271": "вид",
  "6272": " ор",
  "6273": " enor",
  "6274": " rece",
  "6275": " неща",
  "6276": "fl",
  "6277": " minä",
  "6278": " genom",
  "6279": " velmi",
  "6280": "řeb",
  "6281": "рат",
  "6282": "ците",
  "6283": " еще",
  "6284": " fund",
  "6285": " ug",
  "6286": "pect",
  "6287": " Aga",
  "6288": " sod",
  "6289": " zgod",
  "6290": " žmon",
  "6291": "uth",
  "6292": "nings",
  "6293": " služ",
  "6294": " iar",
  "6295": " Parlament",
  "6296": "θέ",
  "6297": "ály",
  "6298": "μέν",
  "6299": " která",
  "6300": "iens",
  "6301": "mist",
  "6302": "лись",
  "6303": "ury",
  "6304": "rati",
  "6305": " fatto",
  "6306": " sedan",
  "6307": "čí",
  "6308": "ough",
  "6309": " esmu",
  "6310": " какво",
  "6311": " tiedätkö",
  "6312": "iller",
  "6313": " част",
  "6314": "ical",
  "6315": " konf",
  "6316": " quanto",
  "6317": "ated",
  "6318": " Tre",
  "6319": "этому",
  "6320": " druh",
  "6321": " παρά",
  "6322": "нию",
  "6323": " ше",
  "6324": " ihre",
  "6325": "olj",
  "6326": " înc",
  "6327": " jaoks",
  "6328": " πράγμα",
  "6329": " bev",
  "6330": " zan",
  "6331": " bere",
  "6332": " right",
  "6333": " ezt",
  "6334": " tika",
  "6335": " dobre",
  "6336": " tus",
  "6337": " čia",
  "6338": "mt",
  "6339": "žno",
  "6340": " lot",
  "6341": " nám",
  "6342": " ener",
  "6343": " przed",
  "6344": "kum",
  "6345": " sé",
  "6346": " profes",
  "6347": "elem",
  "6348": " indiv",
  "6349": "ßen",
  "6350": "яви",
  "6351": " Għal",
  "6352": " paar",
  "6353": " piem",
  "6354": "isas",
  "6355": " kah",
  "6356": " osa",
  "6357": " znate",
  "6358": " Iżda",
  "6359": " trochu",
  "6360": " Uni",
  "6361": " jista",
  "6362": " ktorá",
  "6363": " procent",
  "6364": "ähr",
  "6365": "znál",
  "6366": " fue",
  "6367": "ството",
  "6368": " követ",
  "6369": "ність",
  "6370": " резу",
  "6371": " public",
  "6372": "raš",
  "6373": " Pat",
  "6374": " Ναι",
  "6375": " няма",
  "6376": "ům",
  "6377": "enty",
  "6378": "стру",
  "6379": " cada",
  "6380": "geb",
  "6381": "qas",
  "6382": "nica",
  "6383": " Dat",
  "6384": "iselt",
  "6385": "arm",
  "6386": " πά",
  "6387": "inger",
  "6388": "χι",
  "6389": "čné",
  "6390": " mest",
  "6391": " dieser",
  "6392": "yer",
  "6393": " fö",
  "6394": " нужно",
  "6395": "vaj",
  "6396": "нан",
  "6397": "asse",
  "6398": "stat",
  "6399": "лися",
  "6400": "мата",
  "6401": "entar",
  "6402": " kn",
  "6403": " Cre",
  "6404": " uporab",
  "6405": "oren",
  "6406": " παι",
  "6407": " było",
  "6408": " activ",
  "6409": "kod",
  "6410": " ky",
  "6411": "лата",
  "6412": "lichen",
  "6413": "πι",
  "6414": " συνε",
  "6415": "igo",
  "6416": "tava",
  "6417": "érie",
  "6418": " міс",
  "6419": " dizer",
  "6420": " midagi",
  "6421": "wać",
  "6422": " ця",
  "6423": " mille",
  "6424": "των",
  "6425": "inės",
  "6426": " zei",
  "6427": "знача",
  "6428": "nje",
  "6429": "īga",
  "6430": " Kol",
  "6431": " rav",
  "6432": " tip",
  "6433": " pozn",
  "6434": " jeśli",
  "6435": " nadal",
  "6436": " bef",
  "6437": " fis",
  "6438": " kunt",
  "6439": "kam",
  "6440": " dam",
  "6441": "ortun",
  "6442": " можу",
  "6443": "čil",
  "6444": " hus",
  "6445": " teis",
  "6446": "ateľ",
  "6447": " Fre",
  "6448": " cop",
  "6449": " сти",
  "6450": " commen",
  "6451": " online",
  "6452": " tant",
  "6453": "mus",
  "6454": "vät",
  "6455": "жливо",
  "6456": " glas",
  "6457": " suure",
  "6458": " Sí",
  "6459": " aici",
  "6460": " kasut",
  "6461": "kri",
  "6462": " Toda",
  "6463": " jste",
  "6464": "ņēm",
  "6465": "ším",
  "6466": "jest",
  "6467": " uni",
  "6468": " tous",
  "6469": " μά",
  "6470": "anne",
  "6471": " Pos",
  "6472": " Teraz",
  "6473": "ső",
  "6474": " Sm",
  "6475": " stav",
  "6476": "pal",
  "6477": "вал",
  "6478": " κυ",
  "6479": " ки",
  "6480": " Cor",
  "6481": " sex",
  "6482": " spole",
  "6483": " produkt",
  "6484": " gewoon",
  "6485": " social",
  "6486": "pär",
  "6487": "ére",
  "6488": " sf",
  "6489": " lju",
  "6490": " põh",
  "6491": " rid",
  "6492": " može",
  "6493": " tilb",
  "6494": "ements",
  "6495": " Αν",
  "6496": "ogle",
  "6497": "vous",
  "6498": " maks",
  "6499": " system",
  "6500": "under",
  "6501": " aquí",
  "6502": " jaar",
  "6503": " sign",
  "6504": " empres",
  "6505": "ának",
  "6506": " ανά",
  "6507": " back",
  "6508": " была",
  "6509": "lex",
  "6510": " fü",
  "6511": " etwas",
  "6512": " май",
  "6513": " Face",
  "6514": " YouT",
  "6515": " fejn",
  "6516": "ektr",
  "6517": "aix",
  "6518": "unde",
  "6519": " šeit",
  "6520": " arbej",
  "6521": " jav",
  "6522": "zioni",
  "6523": " систе",
  "6524": " използва",
  "6525": "ye",
  "6526": "вят",
  "6527": " mé",
  "6528": " yh",
  "6529": "adores",
  "6530": " diver",
  "6531": " menos",
  "6532": " kuidas",
  "6533": "hez",
  "6534": "čit",
  "6535": "ální",
  "6536": "ваме",
  "6537": "tar",
  "6538": "чин",
  "6539": "fte",
  "6540": "цій",
  "6541": " úl",
  "6542": " idő",
  "6543": " mange",
  "6544": "elig",
  "6545": "мага",
  "6546": " bola",
  "6547": " пови",
  "6548": "bles",
  "6549": " mnog",
  "6550": " heidän",
  "6551": "wią",
  "6552": " Kr",
  "6553": " bodo",
  "6554": "ege",
  "6555": "plu",
  "6556": "вий",
  "6557": "телно",
  "6558": "imu",
  "6559": "unn",
  "6560": "tir",
  "6561": "ντα",
  "6562": "ător",
  "6563": " εκεί",
  "6564": " velik",
  "6565": " būs",
  "6566": " Unter",
  "6567": " autor",
  "6568": " identi",
  "6569": " sitten",
  "6570": "дже",
  "6571": "чко",
  "6572": " Wh",
  "6573": " atât",
  "6574": " sagde",
  "6575": "ång",
  "6576": " Eh",
  "6577": "drig",
  "6578": " mám",
  "6579": " zoals",
  "6580": " diffic",
  "6581": "kien",
  "6582": " fiz",
  "6583": "kelig",
  "6584": " vrlo",
  "6585": "аа",
  "6586": " wid",
  "6587": " üle",
  "6588": " викори",
  "6589": "γου",
  "6590": " Czy",
  "6591": " cho",
  "6592": " fri",
  "6593": " тук",
  "6594": " pokud",
  "6595": " até",
  "6596": " jiġ",
  "6597": " pid",
  "6598": " более",
  "6599": "ματο",
  "6600": "endre",
  "6601": " servi",
  "6602": "ātad",
  "6603": " πρώ",
  "6604": "rz",
  "6605": "õt",
  "6606": " sw",
  "6607": " mur",
  "6608": " σαν",
  "6609": " rapp",
  "6610": " făcut",
  "6611": "arijiet",
  "6612": " ū",
  "6613": "cel",
  "6614": "dru",
  "6615": "erta",
  "6616": " zeg",
  "6617": " issa",
  "6618": " pasa",
  "6619": " живо",
  "6620": " Inter",
  "6621": "EN",
  "6622": "agu",
  "6623": "χει",
  "6624": " uw",
  "6625": "anut",
  "6626": "ander",
  "6627": " brit",
  "6628": "endant",
  "6629": " będzie",
  "6630": "dě",
  "6631": "нем",
  "6632": " ис",
  "6633": " була",
  "6634": " quindi",
  "6635": "rou",
  "6636": "чна",
  "6637": " itt",
  "6638": "bt",
  "6639": "lož",
  "6640": " Okay",
  "6641": " этого",
  "6642": "och",
  "6643": "ový",
  "6644": " tax",
  "6645": "стори",
  "6646": " wara",
  "6647": " бі",
  "6648": "etty",
  "6649": "ôsob",
  "6650": " Can",
  "6651": " dve",
  "6652": " rep",
  "6653": " яка",
  "6654": " vaat",
  "6655": " ponieważ",
  "6656": " alb",
  "6657": "tem",
  "6658": " hlav",
  "6659": " mitte",
  "6660": "kre",
  "6661": " Hi",
  "6662": " UE",
  "6663": " coś",
  "6664": " jid",
  "6665": " При",
  "6666": " tehn",
  "6667": " ćemo",
  "6668": " послед",
  "6669": " davvero",
  "6670": " Є",
  "6671": "ási",
  "6672": " ла",
  "6673": "ihin",
  "6674": " oameni",
  "6675": " produk",
  "6676": "уу",
  "6677": "kaa",
  "6678": "пъл",
  "6679": " By",
  "6680": " допо",
  "6681": " nared",
  "6682": "ėte",
  "6683": "AAAA",
  "6684": " ceva",
  "6685": " sehen",
  "6686": " stále",
  "6687": "kuš",
  "6688": "eeee",
  "6689": "коло",
  "6690": " hin",
  "6691": " qualc",
  "6692": " temps",
  "6693": " cha",
  "6694": " ora",
  "6695": "йти",
  "6696": "чита",
  "6697": " polí",
  "6698": " quar",
  "6699": "æg",
  "6700": " Oui",
  "6701": "rī",
  "6702": "con",
  "6703": " кри",
  "6704": " малко",
  "6705": "ége",
  "6706": "ħaj",
  "6707": "isem",
  "6708": "ális",
  "6709": " anal",
  "6710": " peri",
  "6711": " todas",
  "6712": "cup",
  "6713": " dik",
  "6714": " love",
  "6715": " нача",
  "6716": "ždy",
  "6717": "udzi",
  "6718": " poco",
  "6719": " toen",
  "6720": " puede",
  "6721": "âr",
  "6722": "τεύ",
  "6723": " Sta",
  "6724": " ach",
  "6725": "къ",
  "6726": "jeti",
  "6727": " Lab",
  "6728": " víte",
  "6729": " capac",
  "6730": "orden",
  "6731": " kraj",
  "6732": " авто",
  "6733": " maail",
  "6734": " unser",
  "6735": " differen",
  "6736": " tý",
  "6737": " Aus",
  "6738": " työ",
  "6739": " oħra",
  "6740": " waħda",
  "6741": "hin",
  "6742": "iejs",
  "6743": "óóóó",
  "6744": "škai",
  "6745": " Kad",
  "6746": "форма",
  "6747": "IT",
  "6748": "jä",
  "6749": "ney",
  "6750": "inio",
  "6751": " West",
  "6752": "itter",
  "6753": " Zeit",
  "6754": " final",
  "6755": " tagasi",
  "6756": " sellest",
  "6757": "enu",
  "6758": "вих",
  "6759": "itse",
  "6760": "liet",
  "6761": " свої",
  "6762": " utiliz",
  "6763": "indo",
  "6764": " kaks",
  "6765": " daugiau",
  "6766": "tia",
  "6767": "род",
  "6768": "rawdę",
  "6769": " bend",
  "6770": " diss",
  "6771": "sä",
  "6772": "itev",
  "6773": "ħħar",
  "6774": " art",
  "6775": " ува",
  "6776": " mnie",
  "6777": " estar",
  "6778": "stå",
  "6779": "ádz",
  "6780": " Дж",
  "6781": " dess",
  "6782": " sport",
  "6783": " Tar",
  "6784": "μμ",
  "6785": "inas",
  "6786": " Tātad",
  "6787": "ρκ",
  "6788": "tive",
  "6789": " сле",
  "6790": " torn",
  "6791": " omdat",
  "6792": "¡¡",
  "6793": "istu",
  "6794": " arg",
  "6795": " folk",
  "6796": " tiempo",
  "6797": " Dit",
  "6798": " Naj",
  "6799": " Como",
  "6800": " teha",
  "6801": " tört",
  "6802": " yhte",
  "6803": "iesies",
  "6804": " потому",
  "6805": " opravdu",
  "6806": "βά",
  "6807": " Φ",
  "6808": "ieš",
  "6809": "ikk",
  "6810": " kro",
  "6811": " Добре",
  "6812": "acă",
  "6813": "кото",
  "6814": " apoi",
  "6815": " použ",
  "6816": " wkoll",
  "6817": " internet",
  "6818": " наистина",
  "6819": " où",
  "6820": "vert",
  "6821": "jí",
  "6822": "йо",
  "6823": "шь",
  "6824": "bru",
  "6825": "dej",
  "6826": "τια",
  "6827": " Ty",
  "6828": " skr",
  "6829": "φέ",
  "6830": "liš",
  "6831": " good",
  "6832": "rs",
  "6833": " Sì",
  "6834": " mű",
  "6835": "ról",
  "6836": " ats",
  "6837": "heder",
  "6838": " Ra",
  "6839": " zob",
  "6840": "inga",
  "6841": " тра",
  "6842": "ewwel",
  "6843": " where",
  "6844": " както",
  "6845": " necess",
  "6846": " YouTube",
  "6847": "вой",
  "6848": " govor",
  "6849": " tajjeb",
  "6850": " лу",
  "6851": " mud",
  "6852": "вести",
  "6853": " aussi",
  "6854": " vissz",
  "6855": "kyt",
  "6856": "rel",
  "6857": " áno",
  "6858": " paci",
  "6859": " κάνει",
  "6860": "вого",
  "6861": " jul",
  "6862": " между",
  "6863": "rā",
  "6864": "pil",
  "6865": "ască",
  "6866": " godt",
  "6867": " mlad",
  "6868": " produc",
  "6869": " Ber",
  "6870": " škol",
  "6871": " povedal",
  "6872": "elm",
  "6873": "tie",
  "6874": " lar",
  "6875": " має",
  "6876": " bolj",
  "6877": " niečo",
  "6878": "AN",
  "6879": "raž",
  "6880": "wad",
  "6881": " eb",
  "6882": " make",
  "6883": " trad",
  "6884": " külön",
  "6885": "fil",
  "6886": "endes",
  "6887": "accord",
  "6888": " pul",
  "6889": " Тепер",
  "6890": "--",
  "6891": "ús",
  "6892": "adt",
  "6893": "тре",
  "6894": " insp",
  "6895": " hovor",
  "6896": "atro",
  "6897": "лося",
  "6898": " Rich",
  "6899": " aldrig",
  "6900": "ox",
  "6901": " Ро",
  "6902": "issä",
  "6903": " vaš",
  "6904": " ďal",
  "6905": " пър",
  "6906": "ването",
  "6907": " politik",
  "6908": " dois",
  "6909": "eln",
  "6910": "кту",
  "6911": " cat",
  "6912": " zah",
  "6913": " тру",
  "6914": " nada",
  "6915": " két",
  "6916": " qué",
  "6917": "tac",
  "6918": "ять",
  "6919": "unta",
  "6920": "úúúú",
  "6921": "пера",
  "6922": "роят",
  "6923": " lejn",
  "6924": " себе",
  "6925": " point",
  "6926": "wor",
  "6927": " nõ",
  "6928": " qal",
  "6929": " sum",
  "6930": " сре",
  "6931": " Imma",
  "6932": " nevar",
  "6933": "aden",
  "6934": " vedno",
  "6935": " gol",
  "6936": " još",
  "6937": " μικ",
  "6938": " jaut",
  "6939": " mora",
  "6940": " potre",
  "6941": "ью",
  "6942": "лом",
  "6943": " Jūs",
  "6944": "αααααααα",
  "6945": " üh",
  "6946": "liche",
  "6947": " pien",
  "6948": " Со",
  "6949": "enea",
  "6950": "μένη",
  "6951": " ots",
  "6952": " žin",
  "6953": " histor",
  "6954": " skutoč",
  "6955": "ėd",
  "6956": "nisk",
  "6957": "rata",
  "6958": "ките",
  "6959": " Van",
  "6960": " vän",
  "6961": " besz",
  "6962": " Са",
  "6963": " нав",
  "6964": "lement",
  "6965": " agora",
  "6966": "ΟΟ",
  "6967": "dig",
  "6968": "vie",
  "6969": " fung",
  "6970": " nors",
  "6971": " toga",
  "6972": " predstav",
  "6973": "cri",
  "6974": "kra",
  "6975": " sagte",
  "6976": " veste",
  "6977": "щу",
  "6978": "čan",
  "6979": "сна",
  "6980": " prijat",
  "6981": "uren",
  "6982": " list",
  "6983": " fic",
  "6984": " Finnish",
  "6985": " tikrųjų",
  "6986": "viz",
  "6987": " сер",
  "6988": " fast",
  "6989": " posta",
  "6990": " seis",
  "6991": " många",
  "6992": "лей",
  "6993": " Sz",
  "6994": " спе",
  "6995": " labi",
  "6996": " tehd",
  "6997": " получи",
  "6998": " bih",
  "6999": "sioon",
  "7000": " mucho",
  "7001": " parlament",
  "7002": "фі",
  "7003": "жде",
  "7004": " jä",
  "7005": " civ",
  "7006": " vic",
  "7007": " aika",
  "7008": " neid",
  "7009": "desmit",
  "7010": " seine",
  "7011": " njegov",
  "7012": " profess",
  "7013": "зно",
  "7014": " От",
  "7015": "лове",
  "7016": "jorde",
  "7017": " Olen",
  "7018": " fors",
  "7019": "enz",
  "7020": "σκε",
  "7021": "спе",
  "7022": " anc",
  "7023": " olisi",
  "7024": "ület",
  "7025": " juh",
  "7026": " lov",
  "7027": " nue",
  "7028": " až",
  "7029": " ży",
  "7030": "asid",
  "7031": " ihn",
  "7032": " imag",
  "7033": " note",
  "7034": " noti",
  "7035": " eivät",
  "7036": " jetzt",
  "7037": "elikult",
  "7038": "SSSS",
  "7039": "вала",
  "7040": " sla",
  "7041": " slut",
  "7042": " обе",
  "7043": "manto",
  "7044": " după",
  "7045": " urmă",
  "7046": " keine",
  "7047": " ακόμα",
  "7048": "bild",
  "7049": "erte",
  "7050": "itik",
  "7051": " нико",
  "7052": " little",
  "7053": " virkelig",
  "7054": " sì",
  "7055": " pob",
  "7056": " tím",
  "7057": " тро",
  "7058": "шение",
  "7059": " indi",
  "7060": " miejs",
  "7061": "σια",
  "7062": "isko",
  "7063": " nal",
  "7064": "aħħar",
  "7065": " zdaj",
  "7066": " gyven",
  "7067": "тро",
  "7068": " lø",
  "7069": "ható",
  "7070": " Een",
  "7071": "στό",
  "7072": " пар",
  "7073": " μετά",
  "7074": "stva",
  "7075": "emaal",
  "7076": "ových",
  "7077": "qt",
  "7078": "edy",
  "7079": " ano",
  "7080": " lop",
  "7081": "oliko",
  "7082": " tieto",
  "7083": "äd",
  "7084": "žas",
  "7085": "тім",
  "7086": "нете",
  "7087": " hak",
  "7088": " αρχ",
  "7089": " szem",
  "7090": " spolo",
  "7091": " Facebo",
  "7092": "ómo",
  "7093": "znam",
  "7094": " Nap",
  "7095": "лення",
  "7096": " Pres",
  "7097": " nėra",
  "7098": " than",
  "7099": "ellement",
  "7100": "bir",
  "7101": "kke",
  "7102": "pir",
  "7103": "ulta",
  "7104": " Wie",
  "7105": " lon",
  "7106": " tämän",
  "7107": "аль",
  "7108": "alne",
  "7109": "timo",
  "7110": "като",
  "7111": " rah",
  "7112": " uděl",
  "7113": "ids",
  "7114": "äch",
  "7115": " andre",
  "7116": " besch",
  "7117": " nombre",
  "7118": "ago",
  "7119": "ível",
  "7120": "μένα",
  "7121": " орга",
  "7122": " nogle",
  "7123": " respons",
  "7124": "ef",
  "7125": "xim",
  "7126": " оби",
  "7127": " poch",
  "7128": "ningar",
  "7129": " pamat",
  "7130": " pasak",
  "7131": " mė",
  "7132": " ens",
  "7133": " mär",
  "7134": " char",
  "7135": " någon",
  "7136": " tiene",
  "7137": "pot",
  "7138": "ffff",
  "7139": "šana",
  "7140": " ran",
  "7141": "μαστε",
  "7142": " tunn",
  "7143": "taient",
  "7144": " favor",
  "7145": " različ",
  "7146": " знаєте",
  "7147": " зав",
  "7148": " blij",
  "7149": " sama",
  "7150": " друго",
  "7151": " alleen",
  "7152": "ath",
  "7153": "esn",
  "7154": "pués",
  "7155": " děl",
  "7156": "lek",
  "7157": "ško",
  "7158": "дар",
  "7159": "зни",
  "7160": " yo",
  "7161": " Ben",
  "7162": "oms",
  "7163": " něk",
  "7164": " Brit",
  "7165": " esam",
  "7166": " lite",
  "7167": " podr",
  "7168": " pois",
  "7169": " mesmo",
  "7170": " todella",
  "7171": "ieden",
  "7172": " игра",
  "7173": "esed",
  "7174": " mali",
  "7175": "ivad",
  "7176": " skute",
  "7177": "aid",
  "7178": "āks",
  "7179": " mysl",
  "7180": " maken",
  "7181": " прода",
  "7182": "χαν",
  "7183": " том",
  "7184": "aires",
  "7185": " fois",
  "7186": " γιατί",
  "7187": " rzeczy",
  "7188": "jus",
  "7189": "τών",
  "7190": " Gesch",
  "7191": " komun",
  "7192": "erde",
  "7193": " ici",
  "7194": " nin",
  "7195": " way",
  "7196": " дея",
  "7197": " lors",
  "7198": " premi",
  "7199": "лень",
  "7200": " vasta",
  "7201": "cen",
  "7202": " ahora",
  "7203": "omi",
  "7204": "στά",
  "7205": " dzī",
  "7206": " say",
  "7207": " daar",
  "7208": " проду",
  "7209": " unsere",
  "7210": "bro",
  "7211": "ħor",
  "7212": "θρω",
  "7213": "λεί",
  "7214": " Го",
  "7215": " rat",
  "7216": " své",
  "7217": " diesem",
  "7218": " потрібно",
  "7219": "κά",
  "7220": "kao",
  "7221": " εγ",
  "7222": "vest",
  "7223": " vou",
  "7224": " control",
  "7225": "ħu",
  "7226": " dí",
  "7227": " δι",
  "7228": "iała",
  "7229": " jelent",
  "7230": " tikrai",
  "7231": " Dž",
  "7232": " puol",
  "7233": " Europ",
  "7234": " Kyllä",
  "7235": " означа",
  "7236": "ides",
  "7237": " Mac",
  "7238": " cou",
  "7239": " mio",
  "7240": " тем",
  "7241": " свою",
  "7242": " ν",
  "7243": "éné",
  "7244": " Kuid",
  "7245": " first",
  "7246": "διά",
  "7247": " olid",
  "7248": " vamos",
  "7249": " sistem",
  "7250": " bliver",
  "7251": " asemenea",
  "7252": "ajt",
  "7253": "anos",
  "7254": "ження",
  "7255": " esse",
  "7256": " pomo",
  "7257": " telj",
  "7258": " tudod",
  "7259": "вительно",
  "7260": "ното",
  "7261": " apm",
  "7262": "ienia",
  "7263": " klaus",
  "7264": " hö",
  "7265": " viv",
  "7266": "ból",
  "7267": " λέ",
  "7268": " rol",
  "7269": " tah",
  "7270": "глежда",
  "7271": " några",
  "7272": " europe",
  "7273": "omm",
  "7274": "rir",
  "7275": " pala",
  "7276": " Univers",
  "7277": "ős",
  "7278": "unut",
  "7279": "лось",
  "7280": " müs",
  "7281": "чо",
  "7282": "oki",
  "7283": "eron",
  "7284": "idel",
  "7285": " ese",
  "7286": " band",
  "7287": " Nii",
  "7288": " svi",
  "7289": "aktar",
  "7290": " správ",
  "7291": " vastu",
  "7292": "ssz",
  "7293": " ps",
  "7294": " están",
  "7295": "σιμοποι",
  "7296": " postav",
  "7297": " ću",
  "7298": "alta",
  "7299": "cios",
  "7300": " euh",
  "7301": " продъл",
  "7302": " puh",
  "7303": "emmän",
  "7304": "čnost",
  "7305": " Port",
  "7306": " '",
  "7307": "sled",
  "7308": " clar",
  "7309": " Dakle",
  "7310": " kapcs",
  "7311": " elektr",
  "7312": " origin",
  "7313": "ês",
  "7314": " Úgy",
  "7315": " radi",
  "7316": " вече",
  "7317": " market",
  "7318": "χο",
  "7319": " Sir",
  "7320": " обо",
  "7321": " Willi",
  "7322": " nista",
  "7323": "amm",
  "7324": "ulo",
  "7325": "ńst",
  "7326": "atel",
  "7327": "ogen",
  "7328": "viet",
  "7329": " Sen",
  "7330": " tiež",
  "7331": " sistema",
  "7332": "gev",
  "7333": "iat",
  "7334": "ėje",
  "7335": " acho",
  "7336": " инте",
  "7337": " medic",
  "7338": "οο",
  "7339": "inde",
  "7340": "зова",
  "7341": " подо",
  "7342": " volta",
  "7343": "olg",
  "7344": " lá",
  "7345": " Tra",
  "7346": "yg",
  "7347": "eko",
  "7348": "rio",
  "7349": "ное",
  "7350": "ffen",
  "7351": "stan",
  "7352": " halu",
  "7353": "zon",
  "7354": " jgħ",
  "7355": " dollar",
  "7356": "xxxx",
  "7357": " kall",
  "7358": " volna",
  "7359": " oblasti",
  "7360": "кон",
  "7361": " well",
  "7362": " projek",
  "7363": " naprawdę",
  "7364": "τεί",
  "7365": "νεται",
  "7366": " hran",
  "7367": " trav",
  "7368": " institu",
  "7369": " Ва",
  "7370": " czę",
  "7371": " cose",
  "7372": "eds",
  "7373": " Stre",
  "7374": "éz",
  "7375": " sun",
  "7376": " down",
  "7377": " fak",
  "7378": " sle",
  "7379": " päiv",
  "7380": " yrit",
  "7381": " день",
  "7382": "dob",
  "7383": " add",
  "7384": " fej",
  "7385": " país",
  "7386": " iż",
  "7387": " Así",
  "7388": "amais",
  "7389": " esim",
  "7390": " kuten",
  "7391": "лни",
  "7392": "ingu",
  "7393": " Jap",
  "7394": "пы",
  "7395": "зви",
  "7396": " наше",
  "7397": " somet",
  "7398": " tāpēc",
  "7399": " gjorde",
  "7400": "roš",
  "7401": "čně",
  "7402": " γε",
  "7403": " νέ",
  "7404": " typ",
  "7405": " onde",
  "7406": " одно",
  "7407": " anden",
  "7408": "сен",
  "7409": "tiva",
  "7410": " lad",
  "7411": " части",
  "7412": "ък",
  "7413": " θε",
  "7414": " cet",
  "7415": " pela",
  "7416": " Τα",
  "7417": "ativa",
  "7418": " další",
  "7419": " nějak",
  "7420": " повер",
  "7421": "žd",
  "7422": "ność",
  "7423": " bár",
  "7424": " rov",
  "7425": " σου",
  "7426": "ности",
  "7427": " vari",
  "7428": " anderen",
  "7429": "née",
  "7430": "atos",
  "7431": "elta",
  "7432": " rast",
  "7433": " blive",
  "7434": " gesch",
  "7435": "ozaj",
  "7436": " ton",
  "7437": " chod",
  "7438": " зали",
  "7439": " Vis",
  "7440": " impl",
  "7441": " pärast",
  "7442": " Menschen",
  "7443": "ők",
  "7444": "διο",
  "7445": "endi",
  "7446": " niż",
  "7447": "ises",
  "7448": "нови",
  "7449": " dij",
  "7450": " ros",
  "7451": " robi",
  "7452": " estaba",
  "7453": " allt",
  "7454": " suas",
  "7455": "sew",
  "7456": " Ci",
  "7457": "ville",
  "7458": " sada",
  "7459": "ността",
  "7460": " naozaj",
  "7461": "нок",
  "7462": "otto",
  "7463": "žeme",
  "7464": " Hon",
  "7465": " kalb",
  "7466": " pati",
  "7467": " wiesz",
  "7468": "кою",
  "7469": " сп",
  "7470": "ният",
  "7471": " kie",
  "7472": " sre",
  "7473": "вайте",
  "7474": " aast",
  "7475": " varētu",
  "7476": "fal",
  "7477": "ieb",
  "7478": " kér",
  "7479": " inde",
  "7480": "λογ",
  "7481": " åt",
  "7482": " Па",
  "7483": "ário",
  "7484": " jit",
  "7485": "amine",
  "7486": "ligen",
  "7487": " arvan",
  "7488": " maintenant",
  "7489": "inę",
  "7490": " ша",
  "7491": " Sel",
  "7492": " anim",
  "7493": " igaz",
  "7494": " määr",
  "7495": " comer",
  "7496": " opera",
  "7497": "γω",
  "7498": " mov",
  "7499": " zach",
  "7500": " posled",
  "7501": " administ",
  "7502": "ety",
  "7503": " ieg",
  "7504": " würde",
  "7505": "ără",
  "7506": " Vor",
  "7507": "akter",
  "7508": "publi",
  "7509": " mundo",
  "7510": " nunca",
  "7511": " sł",
  "7512": " благо",
  "7513": "ūk",
  "7514": "tri",
  "7515": "seen",
  "7516": " Fin",
  "7517": "ħabba",
  "7518": " sitt",
  "7519": "wet",
  "7520": " tarko",
  "7521": "вете",
  "7522": " kau",
  "7523": " чове",
  "7524": " resta",
  "7525": " nastav",
  "7526": " element",
  "7527": "ual",
  "7528": " хм",
  "7529": "ėjau",
  "7530": "льта",
  "7531": " gov",
  "7532": " näh",
  "7533": " tada",
  "7534": " člov",
  "7535": "cev",
  "7536": "cza",
  "7537": "koj",
  "7538": "čio",
  "7539": "aliza",
  "7540": " assim",
  "7541": "єю",
  "7542": "дра",
  "7543": "лото",
  "7544": " bran",
  "7545": " nüüd",
  "7546": "ninger",
  "7547": "kę",
  "7548": "лите",
  "7549": " бли",
  "7550": "andid",
  "7551": " hyvä",
  "7552": " máme",
  "7553": " tilbage",
  "7554": "rede",
  "7555": " nič",
  "7556": " Euró",
  "7557": " kiek",
  "7558": " jedno",
  "7559": " God",
  "7560": " maz",
  "7561": " tog",
  "7562": " vit",
  "7563": " кли",
  "7564": "iseen",
  "7565": " arba",
  "7566": "νια",
  "7567": " Ti",
  "7568": "bile",
  "7569": " τρό",
  "7570": "ennem",
  "7571": " Zato",
  "7572": " saat",
  "7573": " Bl",
  "7574": " aki",
  "7575": " ier",
  "7576": " nekoliko",
  "7577": "ník",
  "7578": "tivo",
  "7579": "ками",
  "7580": " Dur",
  "7581": " iem",
  "7582": "цията",
  "7583": " tová",
  "7584": " οικο",
  "7585": " робо",
  "7586": " хоче",
  "7587": "yttä",
  "7588": " Net",
  "7589": " pelo",
  "7590": " minist",
  "7591": " Ή",
  "7592": "τικέ",
  "7593": " Star",
  "7594": " lige",
  "7595": " Jeśli",
  "7596": "ect",
  "7597": " rit",
  "7598": " perf",
  "7599": "uru",
  "7600": "đer",
  "7601": "itus",
  "7602": "ктив",
  "7603": " That",
  "7604": " prieš",
  "7605": " wissen",
  "7606": "apa",
  "7607": "ogo",
  "7608": " incl",
  "7609": " avoir",
  "7610": " mennes",
  "7611": " mindig",
  "7612": "hány",
  "7613": " jut",
  "7614": " sido",
  "7615": " decir",
  "7616": " kapit",
  "7617": "šla",
  "7618": " Ye",
  "7619": " ori",
  "7620": "tavat",
  "7621": "zenia",
  "7622": " Dru",
  "7623": " поч",
  "7624": "ěd",
  "7625": " sir",
  "7626": " iets",
  "7627": "ság",
  "7628": "шим",
  "7629": "ikus",
  "7630": "lege",
  "7631": " sätt",
  "7632": " cosas",
  "7633": " coisas",
  "7634": "daw",
  "7635": "ješ",
  "7636": "čaj",
  "7637": "eben",
  "7638": " weg",
  "7639": " tend",
  "7640": "ąd",
  "7641": "πέ",
  "7642": "zion",
  "7643": " kép",
  "7644": " naf",
  "7645": " grad",
  "7646": " mówi",
  "7647": " pozi",
  "7648": " certa",
  "7649": " nieko",
  "7650": " puțin",
  "7651": " zí",
  "7652": " trou",
  "7653": " trebui",
  "7654": "oru",
  "7655": "ensä",
  "7656": "jena",
  "7657": " mama",
  "7658": " ellen",
  "7659": "üks",
  "7660": " Εν",
  "7661": "šimt",
  "7662": "uksen",
  "7663": " għad",
  "7664": " saada",
  "7665": " eftersom",
  "7666": " personas",
  "7667": "δί",
  "7668": "šet",
  "7669": "edes",
  "7670": "lust",
  "7671": " hang",
  "7672": " signific",
  "7673": " вз",
  "7674": "erst",
  "7675": " Sal",
  "7676": "gte",
  "7677": "inc",
  "7678": " îl",
  "7679": "sche",
  "7680": "ůsob",
  "7681": "pportun",
  "7682": " podpor",
  "7683": " può",
  "7684": "ystem",
  "7685": "änder",
  "7686": " izmanto",
  "7687": "ζί",
  "7688": "asa",
  "7689": "ote",
  "7690": " мя",
  "7691": "rukt",
  "7692": " tehdä",
  "7693": " zrobi",
  "7694": " či",
  "7695": " aps",
  "7696": "idente",
  "7697": " const",
  "7698": " rohkem",
  "7699": " χρησιμοποι",
  "7700": "от",
  "7701": "ква",
  "7702": "τηση",
  "7703": " Mil",
  "7704": " кла",
  "7705": "kollu",
  "7706": " tych",
  "7707": " desde",
  "7708": " ktorí",
  "7709": "šel",
  "7710": " næ",
  "7711": "ijek",
  "7712": " esp",
  "7713": " спа",
  "7714": " чув",
  "7715": " leid",
  "7716": " svoju",
  "7717": "umb",
  "7718": " Де",
  "7719": " ос",
  "7720": "ches",
  "7721": "eles",
  "7722": "ложи",
  "7723": " edu",
  "7724": " sko",
  "7725": " dove",
  "7726": "κή",
  "7727": "emy",
  "7728": "imin",
  "7729": "iski",
  "7730": "unden",
  "7731": " Para",
  "7732": " noss",
  "7733": " teie",
  "7734": " dokon",
  "7735": " europ",
  "7736": "turi",
  "7737": " zac",
  "7738": " εργ",
  "7739": "enten",
  "7740": " veik",
  "7741": " våra",
  "7742": "zw",
  "7743": "ža",
  "7744": "osť",
  "7745": "aniu",
  "7746": " När",
  "7747": "eller",
  "7748": " spun",
  "7749": " hyvin",
  "7750": " ihmis",
  "7751": " истори",
  "7752": "nil",
  "7753": " žen",
  "7754": " ming",
  "7755": "χω",
  "7756": " tá",
  "7757": "etek",
  "7758": "нова",
  "7759": " pă",
  "7760": "tiin",
  "7761": " bomo",
  "7762": " cerc",
  "7763": " καθώ",
  "7764": " ancora",
  "7765": " έχουμε",
  "7766": "кли",
  "7767": "aval",
  "7768": " noz",
  "7769": "allen",
  "7770": " gled",
  "7771": " magħ",
  "7772": " этот",
  "7773": "js",
  "7774": "тни",
  "7775": " cie",
  "7776": " práv",
  "7777": " mejor",
  "7778": " posit",
  "7779": " prest",
  "7780": " уча",
  "7781": " veľa",
  "7782": " sulla",
  "7783": "imų",
  "7784": "akin",
  "7785": " App",
  "7786": " смо",
  "7787": " olnud",
  "7788": " există",
  "7789": " realiz",
  "7790": "jos",
  "7791": "λοι",
  "7792": " бъ",
  "7793": "tség",
  "7794": "мите",
  "7795": " pár",
  "7796": " tudo",
  "7797": " nikdy",
  "7798": " spôsob",
  "7799": "dien",
  "7800": " Kdy",
  "7801": " aller",
  "7802": "ствительно",
  "7803": "ňa",
  "7804": "kul",
  "7805": "ély",
  "7806": "čka",
  "7807": " anos",
  "7808": "etu",
  "7809": "acji",
  "7810": "onių",
  "7811": " mij",
  "7812": "тем",
  "7813": "ness",
  "7814": " Ils",
  "7815": " Jie",
  "7816": " gem",
  "7817": " zelf",
  "7818": " явля",
  "7819": " valst",
  "7820": "nat",
  "7821": " Op",
  "7822": " već",
  "7823": " фор",
  "7824": " Bill",
  "7825": " nakon",
  "7826": " υπάρχει",
  "7827": "omu",
  "7828": " äl",
  "7829": "iego",
  "7830": " Che",
  "7831": " gut",
  "7832": " kész",
  "7833": " проце",
  "7834": "ņa",
  "7835": " Ще",
  "7836": "jort",
  "7837": "ljiv",
  "7838": " cij",
  "7839": " weil",
  "7840": " müssen",
  "7841": "ць",
  "7842": "gue",
  "7843": " tuk",
  "7844": " vár",
  "7845": " parl",
  "7846": " τώρα",
  "7847": " хочу",
  "7848": "ślę",
  "7849": "μού",
  "7850": " only",
  "7851": " őket",
  "7852": "alment",
  "7853": " model",
  "7854": " todėl",
  "7855": " használ",
  "7856": "ettu",
  "7857": " pew",
  "7858": " tež",
  "7859": " keres",
  "7860": " pogled",
  "7861": " програ",
  "7862": " telefon",
  "7863": " ",
  "7864": "e",
  "7865": "a",
  "7866": "i",
  "7867": "n",
  "7868": "t",
  "7869": "o",
  "7870": "s",
  "7871": "r",
  "7872": "l",
  "7873": "u",
  "7874": "d",
  "7875": "m",
  "7876": "k",
  "7877": ",",
  "7878": "p",
  "7879": "v",
  "7880": "c",
  "7881": "g",
  "7882": "h",
  "7883": ".",
  "7884": "j",
  "7885": "о",
  "7886": "b",
  "7887": "а",
  "7888": "z",
  "7889": "е",
  "7890": "и",
  "7891": "т",
  "7892": "н",
  "7893": "y",
  "7894": "f",
  "7895": "в",
  "7896": "р",
  "7897": "с",
  "7898": "w",
  "7899": "α",
  "7900": "л",
  "7901": "к",
  "7902": "д",
  "7903": "ä",
  "7904": "м",
  "7905": "τ",
  "7906": "é",
  "7907": "ο",
  "7908": "ε",
  "7909": "п",
  "7910": "á",
  "7911": "ι",
  "7912": "у",
  "7913": "ν",
  "7914": "я",
  "7915": "з",
  "7916": "š",
  "7917": "і",
  "7918": "-",
  "7919": "q",
  "7920": "í",
  "7921": "б",
  "7922": "σ",
  "7923": "S",
  "7924": "A",
  "7925": "ρ",
  "7926": "ž",
  "7927": "г",
  "7928": "π",
  "7929": "ч",
  "7930": "č",
  "7931": "'",
  "7932": "μ",
  "7933": "ā",
  "7934": "T",
  "7935": "κ",
  "7936": "E",
  "7937": "M",
  "7938": "υ",
  "7939": "ă",
  "7940": "ö",
  "7941": "ь",
  "7942": "D",
  "7943": "ħ",
  "7944": "η",
  "7945": "I",
  "7946": "P",
  "7947": "N",
  "7948": "ó",
  "7949": "λ",
  "7950": "x",
  "7951": "ж",
  "7952": "й",
  "7953": "å",
  "7954": "ί",
  "7955": "ό",
  "7956": "?",
  "7957": "ά",
  "7958": "х",
  "7959": "J",
  "7960": "C",
  "7961": "ы",
  "7962": "έ",
  "7963": "B",
  "7964": "H",
  "7965": "ü",
  "7966": "K",
  "7967": "ш",
  "7968": "L",
  "7969": "V",
  "7970": "O",
  "7971": "ą",
  "7972": "ē",
  "7973": "ц",
  "7974": "ż",
  "7975": "ī",
  "7976": "ю",
  "7977": "γ",
  "7978": "щ",
  "7979": "ъ",
  "7980": "ł",
  "7981": "δ",
  "7982": "ý",
  "7983": "ę",
  "7984": "ė",
  "7985": "ě",
  "7986": "ω",
  "7987": "U",
  "7988": "ή",
  "7989": "ú",
  "7990": "G",
  "7991": "R",
  "7992": "W",
  "7993": "ș",
  "7994": "χ",
  "7995": "F",
  "7996": "õ",
  "7997": "ć",
  "7998": "ț",
  "7999": "θ",
  "8000": "ų",
  "8001": "î",
  "8002": "ύ",
  "8003": "ū",
  "8004": "ř",
  "8005": "ġ",
  "8006": "ã",
  "8007": "à",
  "8008": "ś",
  "8009": "ő",
  "8010": "ť",
  "8011": "æ",
  "8012": "ώ",
  "8013": "э",
  "8014": "φ",
  "8015": "ø",
  "8016": "ņ",
  "8017": "è",
  "8018": "є",
  "8019": "Z",
  "8020": "!",
  "8021": "į",
  "8022": "ф",
  "8023": "β",
  "8024": "â",
  "8025": "ç",
  "8026": "Т",
  "8027": "ê",
  "8028": "ċ",
  "8029": "Н",
  "8030": "ї",
  "8031": "В",
  "8032": "ξ",
  "8033": ":",
  "8034": "С",
  "8035": "ů",
  "8036": "ζ",
  "8037": "П",
  "8038": "ľ",
  "8039": "Д",
  "8040": "Y",
  "8041": "К",
  "8042": "М",
  "8043": "О",
  "8044": "ļ",
  "8045": "ô",
  "8046": "И",
  "8047": "Q",
  "8048": "А",
  "8049": "Я",
  "8050": "Α",
  "8051": "Б",
  "8052": "Ε",
  "8053": "ď",
  "8054": "ß",
  "8055": "З",
  "8056": "Τ",
  "8057": "Š",
  "8058": "Κ",
  "8059": "đ",
  "8060": "Ο",
  "8061": "ű",
  "8062": "Е",
  "8063": "ň",
  "8064": "Σ",
  "8065": "Π",
  "8066": "ñ",
  "8067": "ù",
  "8068": "Μ",
  "8069": "У",
  "8070": "É",
  "8071": "ψ",
  "8072": "Р",
  "8073": "ń",
  "8074": "Г",
  "8075": "ò",
  "8076": "ì",
  "8077": "Č",
  "8078": "Ц",
  "8079": "Л",
  "8080": "¿",
  "8081": "Э",
  "8082": "Х",
  "8083": "Ș",
  "8084": "ķ",
  "8085": "Η",
  "8086": "Έ",
  "8087": "Î",
  "8088": "І",
  "8089": "Ч",
  "8090": "Ν",
  "8091": "X",
  "8092": "ģ",
  "8093": "Δ",
  "8094": "Γ",
  "8095": "Ž",
  "8096": "Ф",
  "8097": "ź",
  "8098": "¡",
  "8099": "Á",
  "8100": "È",
  "8101": "ë",
  "8102": "Θ",
  "8103": "Ό",
  "8104": "Ω",
  "8105": "Щ",
  "8106": "Ú",
  "8107": "Ш",
  "8108": "Λ",
  "8109": "Ü",
  "8110": "Å",
  "8111": "Ä",
  "8112": "Ι",
  "8113": "û",
  "8114": "ϊ",
  "8115": "Χ",
  "8116": "Β",
  "8117": "Є",
  "8118": "Φ",
  "8119": "Ρ",
  "8120": "Й",
  "8121": "Ħ",
  "8122": "Ġ",
  "8123": "Ή",
  "8124": "Ó",
  "8125": "Ö",
  "8126": "Υ",
  "8127": "Í",
  "8128": "Ά",
  "8129": "ï",
  "8130": "œ",
  "8131": "À",
  "8132": "%",
  "8133": "Ж",
  "8134": "Ξ",
  "8135": "Ю",
  "8136": "Ř",
  "8137": "Ő",
  "8138": "Ď",
  "8139": "Ї",
  "8140": "Ċ",
  "8141": "ŕ",
  "8142": "Į",
  "8143": "Ż",
  "8144": "ĺ",
  "8145": "Ś",
  "8146": "Ā",
  "8147": "/",
  "8148": "Ņ",
  "8149": "Ζ",
  "8150": "ґ",
  "8151": "Ç",
  "8152": "Õ",
  "8153": "Ķ",
  "8154": "Ī",
  "8155": "Ľ",
  "8156": "Ļ",
  "8157": "Ē",
  "8158": "Ț",
  "8159": "Ł",
  "8160": "Æ",
  "8161": "Ø",
  "8162": "Ê",
  "8163": "Ь",
  "8164": "Ă",
  "8165": "Ъ",
  "8166": "Ū",
  "8167": "Ψ",
  "8168": "Ģ",
  "8169": "Ė",
  "8170": "Ы",
  "8171": "Ć",
  "8172": "Ě",
  "8173": "Ę",
  "8174": "Ą",
  "8175": "Ť",
  "8176": "Ý",
  "8177": "Ґ",
  "8178": "Ô",
  "8179": "$",
  "8180": "Â",
  "8181": "Ã",
  "8182": "Ų",
  "8183": "Ű",
  "8184": "Ź",
  "8185": "€",
  "8186": "Ů",
  "8187": "Ň",
  "8188": "£",
  "8189": "Ì",
  "8190": "Ń",
  "8191": "Œ"
}